<unk>	0
<s>	0
</s>	0
▁the	-3.05875
▁of	-3.42704
.	-3.5444
,	-3.67957
-	-3.81417
▁and	-3.98278
s	-3.98805
▁a	-4.04023
▁in	-4.24788
▁to	-4.30219
▁is	-4.64262
▁for	-4.75971
▁	-4.78818
▁that	-4.96432
▁with	-4.99448
▁We	-5.13424
▁on	-5.23349
▁The	-5.27709
▁(	-5.29969
)	-5.30192
▁are	-5.31286
▁we	-5.34654
▁$	-5.35204
▁by	-5.39448
$	-5.62572
▁an	-5.64644
▁this	-5.70779
▁as	-5.71972
▁be	-5.75724
▁from	-5.77376
ing	-5.86625
▁which	-5.8673
▁In	-5.91428
▁at	-5.93027
d	-6.01621
▁$\	-6.06125
▁can	-6.09088
▁model	-6.12625
ed	-6.13598
n	-6.19517
▁A	-6.21142
e	-6.24758
ly	-6.25807
▁\	-6.29415
\	-6.32264
▁two	-6.33733
▁show	-6.41064
{	-6.48104
▁results	-6.4854
▁data	-6.49369
_	-6.50341
▁This	-6.51735
:	-6.53097
▁also	-6.56418
▁have	-6.59179
(	-6.59548
▁between	-6.61591
D	-6.62798
▁non	-6.6284
'	-6.63634
}	-6.64044
▁using	-6.66462
al	-6.67398
▁these	-6.68785
▁or	-6.69068
/	-6.7012
▁time	-6.71426
▁it	-6.71796
▁field	-6.72305
▁has	-6.72853
▁our	-6.73693
▁quantum	-6.73865
p	-6.74579
▁paper	-6.75187
▁not	-6.76607
▁one	-6.76812
▁such	-6.782
▁study	-6.78724
▁system	-6.80014
t	-6.81491
c	-6.83769
T	-6.86502
▁new	-6.86707
▁method	-6.87344
▁energy	-6.87959
y	-6.88606
er	-6.89395
▁models	-6.91207
▁theory	-6.91785
S	-6.92491
▁present	-6.9315
m	-6.94989
▁high	-6.95575
N	-6.96344
▁state	-6.96417
in	-6.96976
M	-6.97229
a	-6.97506
▁their	-6.9765
B	-6.99007
r	-6.99087
i	-6.99115
G	-7.00431
R	-7.00517
▁its	-7.01013
▁problem	-7.02785
▁different	-7.0345
k	-7.03614
▁M	-7.03845
▁based	-7.04996
▁systems	-7.05757
▁S	-7.05759
▁well	-7.05946
▁large	-7.06476
▁than	-7.07436
A	-7.09136
g	-7.09346
▁space	-7.09422
▁where	-7.09524
H	-7.10061
▁number	-7.10167
O	-7.10897
C	-7.11913
▁all	-7.1229
▁both	-7.12319
▁been	-7.12545
P	-7.12993
L	-7.13045
▁function	-7.13131
▁mass	-7.13461
▁approach	-7.1403
▁order	-7.14288
f	-7.15298
▁find	-7.15622
x	-7.15696
▁first	-7.17161
▁phase	-7.17724
▁used	-7.18503
▁properties	-7.1885
or	-7.19032
▁B	-7.19225
▁over	-7.19405
}$	-7.20285
o	-7.20346
F	-7.20737
▁C	-7.21981
▁structure	-7.23075
▁spin	-7.24956
▁analysis	-7.25669
▁some	-7.25683
b	-7.26041
2	-7.26327
▁Our	-7.26347
▁H	-7.26776
▁magnetic	-7.27117
▁P	-7.27149
▁case	-7.27881
to	-7.27941
▁more	-7.27986
▁K	-7.27988
▁into	-7.28493
▁low	-7.31775
▁when	-7.33299
V	-7.33498
▁only	-7.34055
▁other	-7.35323
).	-7.35479
▁states	-7.35578
▁T	-7.35983
▁F	-7.3676
▁use	-7.36801
▁but	-7.36873
▁proposed	-7.36966
▁density	-7.37632
_{	-7.3768
▁D	-7.3868
ity	-7.39204
K	-7.39641
▁It	-7.40127
▁For	-7.40695
▁work	-7.41842
▁R	-7.41974
u	-7.42258
dimensional	-7.42388
▁N	-7.42463
E	-7.42488
▁set	-7.43616
es	-7.43702
▁distribution	-7.43989
$-	-7.47541
▁algorithm	-7.48931
▁three	-7.49287
▁observed	-7.50376
▁result	-7.51094
▁E	-7.5126
▁under	-7.51746
▁obtained	-7.51798
),	-7.52073
▁finite	-7.5219
▁2	-7.52284
▁X	-7.52375
▁general	-7.52454
)$	-7.52618
▁G	-7.52696
▁methods	-7.53022
▁network	-7.53231
W	-7.54251
▁re	-7.54508
z	-7.54615
▁L	-7.54664
▁information	-7.54914
▁I	-7.54937
▁temperature	-7.55113
▁may	-7.56642
ic	-7.56728
▁functions	-7.57248
▁single	-7.57541
▁equation	-7.5894
h	-7.58962
▁any	-7.59112
▁provide	-7.59343
▁if	-7.59382
▁multi	-7.6015
▁parameters	-7.60809
▁found	-7.61023
▁each	-7.61269
▁propose	-7.61415
▁3	-7.62246
;	-7.62592
ray	-7.63277
▁p	-7.63546
▁1	-7.63821
▁was	-7.64058
▁dynamics	-7.64399
▁potential	-7.64482
▁particular	-7.6467
▁performance	-7.65912
▁group	-7.66665
▁learning	-7.67147
▁local	-7.67203
▁equations	-7.67818
▁small	-7.67868
▁sub	-7.68333
▁effect	-7.68472
▁linear	-7.68602
▁point	-7.68692
▁process	-7.68776
▁terms	-7.68864
▁due	-7.69418
▁most	-7.69576
▁given	-7.6993
it	-7.70092
▁through	-7.70098
▁solutions	-7.70586
▁prove	-7.70913
▁transition	-7.71166
▁range	-7.71293
▁out	-7.72063
on	-7.72329
▁consider	-7.72405
▁=	-7.72519
▁how	-7.72544
X	-7.72557
^	-7.73188
▁power	-7.73479
▁framework	-7.75358
re	-7.75472
▁surface	-7.7564
▁form	-7.75927
+	-7.76118
▁effects	-7.76276
▁"	-7.76286
l	-7.76392
▁star	-7.76411
▁These	-7.77266
▁light	-7.77349
▁rate	-7.775
▁galaxies	-7.77572
▁de	-7.77791
▁real	-7.77878
▁solution	-7.78079
"	-7.78186
▁parameter	-7.79012
▁conditions	-7.79076
based	-7.7909
▁shown	-7.79247
▁To	-7.79512
▁s	-7.79778
▁many	-7.8016
$,	-7.80362
▁stars	-7.8043
▁emission	-7.80957
▁within	-7.81408
3	-7.81609
▁will	-7.81632
▁limit	-7.8177
▁very	-7.82571
▁type	-7.83051
▁up	-7.83357
▁possible	-7.84059
▁class	-7.84085
▁there	-7.84142
▁fields	-7.84444
▁simple	-7.84617
▁demonstrate	-7.85096
able	-7.85103
▁evolution	-7.85147
$.	-7.85169
▁while	-7.85437
▁However	-7.86134
▁strong	-7.86498
▁observations	-7.86852
▁same	-7.87159
▁matter	-7.87536
ion	-7.88105
▁discuss	-7.88123
▁interaction	-7.89837
▁networks	-7.89909
▁effective	-7.903
▁optical	-7.90523
▁complex	-7.90574
▁O	-7.90862
▁several	-7.91141
▁V	-7.91149
▁known	-7.91357
▁simulations	-7.91802
▁current	-7.9214
U	-7.92427
▁investigate	-7.93047
▁spectrum	-7.93144
▁random	-7.9319
ation	-7.93526
▁then	-7.93731
▁obtain	-7.93816
▁about	-7.93966
▁no	-7.94064
▁On	-7.94532
▁numerical	-7.9463
I	-7.94726
en	-7.94965
▁f	-7.95432
▁coupling	-7.95511
▁As	-7.96088
▁give	-7.96551
▁associated	-7.96747
▁so	-7.97066
▁classical	-7.97205
▁via	-7.97503
▁experimental	-7.97623
▁formation	-7.97786
▁measurements	-7.97878
▁value	-7.98615
alpha	-7.9864
▁un	-7.98713
▁W	-7.98938
▁black	-7.99139
▁experiments	-7.99145
▁graph	-7.99163
Z	-7.99239
▁gas	-7.99632
▁higher	-7.99924
▁applications	-7.99993
▁size	-8.0004
an	-8.00176
▁were	-8.00292
▁symmetry	-8.01151
▁recent	-8.01296
▁problems	-8.01563
▁important	-8.01784
▁behavior	-8.02186
▁long	-8.02741
le	-8.03097
▁critical	-8.03139
rm	-8.03427
▁electron	-8.0346
▁spectral	-8.03468
ive	-8.03655
▁standard	-8.03704
▁scale	-8.03743
▁values	-8.03991
▁lattice	-8.04276
▁features	-8.04375
▁matrix	-8.04423
v	-8.04481
▁they	-8.05081
▁[	-8.0509
of	-8.05097
el	-8.05148
ar	-8.0546
▁second	-8.05463
▁region	-8.06197
▁J	-8.06203
=	-8.06213
▁wave	-8.06899
▁An	-8.06911
▁including	-8.0755
pi	-8.07975
▁corresponding	-8.0815
▁co	-8.08163
▁Using	-8.08536
]	-8.08566
mu	-8.08614
▁control	-8.0876
▁even	-8.08801
▁m	-8.08879
mathbb	-8.09181
▁level	-8.09669
Q	-8.09717
▁constant	-8.09764
▁Re	-8.09961
▁detection	-8.10046
th	-8.10406
w	-8.10793
▁n	-8.10984
▁Here	-8.11676
▁self	-8.11734
q	-8.12011
▁various	-8.1211
▁source	-8.1213
▁bound	-8.12163
▁studied	-8.12195
▁line	-8.12309
▁gauge	-8.1232
▁scattering	-8.12642
▁flow	-8.12693
▁compared	-8.127
▁interactions	-8.13119
_{\	-8.13425
▁multiple	-8.13516
▁presented	-8.13891
▁boundary	-8.14263
the	-8.14749
▁particle	-8.14827
▁those	-8.14975
▁without	-8.1505
▁novel	-8.15389
▁algorithms	-8.1546
▁sample	-8.15796
▁lower	-8.1661
ization	-8.16857
5	-8.18198
▁d	-8.18792
▁near	-8.18884
▁main	-8.18989
▁image	-8.19082
▁similar	-8.19393
▁zero	-8.19505
▁allows	-8.19961
▁optimal	-8.20319
ized	-8.20441
▁approximation	-8.20473
like	-8.20767
▁U	-8.20835
▁processes	-8.20907
▁particles	-8.21382
▁mean	-8.21481
▁initial	-8.22169
▁related	-8.2281
▁dark	-8.22846
▁physical	-8.22958
4	-8.23
▁stellar	-8.23107
{\	-8.23482
▁free	-8.23662
▁theoretical	-8.24261
▁previous	-8.24487
ur	-8.24504
▁e	-8.24714
▁velocity	-8.24767
6	-8.24802
1	-8.25048
▁presence	-8.25094
ally	-8.25219
▁spectra	-8.25673
▁scheme	-8.2571
▁galaxy	-8.2572
▁do	-8.25769
▁certain	-8.25996
▁applied	-8.26149
▁super	-8.26346
▁cross	-8.26837
▁derived	-8.26885
▁groups	-8.26903
▁measure	-8.26925
▁cluster	-8.27002
▁design	-8.27224
time	-8.27557
▁frequency	-8.27592
▁structures	-8.28063
▁way	-8.28383
▁i	-8.28389
▁-	-8.28795
▁derive	-8.28939
▁weak	-8.2904
sim	-8.29561
▁scalar	-8.29579
▁consistent	-8.29657
▁decay	-8.29893
▁pre	-8.30274
▁significant	-8.30323
us	-8.30447
▁considered	-8.30673
J	-8.3134
▁factor	-8.31441
▁sources	-8.31658
▁4	-8.32116
▁existence	-8.32374
ness	-8.32426
▁introduce	-8.32431
▁describe	-8.32432
▁relation	-8.3246
▁deep	-8.32584
▁correlation	-8.32608
▁provides	-8.32632
▁techniques	-8.32683
▁further	-8.32796
▁dependence	-8.32878
▁noise	-8.33075
▁nonlinear	-8.33199
▁test	-8.33296
▁radio	-8.33302
▁cases	-8.33608
▁probability	-8.3382
▁c	-8.34006
▁ratio	-8.3419
▁Finally	-8.34373
▁during	-8.34428
^{	-8.34435
▁open	-8.34482
ell	-8.34562
▁topological	-8.34834
▁constraints	-8.3519
▁motion	-8.35337
mathcal	-8.35401
▁studies	-8.35562
▁could	-8.357
▁vector	-8.35768
▁signal	-8.36181
▁hole	-8.36188
▁points	-8.36457
▁discussed	-8.36714
▁5	-8.36819
▁dynamical	-8.36927
▁application	-8.3697
▁part	-8.36976
▁thermal	-8.37026
▁four	-8.37101
▁domain	-8.37481
▁physics	-8.37592
▁10	-8.37888
▁accuracy	-8.38008
▁b	-8.38248
▁charge	-8.38816
▁{\	-8.39374
▁operators	-8.3938
▁t	-8.39397
art	-8.39474
ent	-8.3972
▁spatial	-8.39747
▁mechanism	-8.40001
▁us	-8.40091
▁Z	-8.40443
▁condition	-8.40598
▁representation	-8.40692
up	-8.41299
▁distance	-8.41433
▁images	-8.41609
(\	-8.42191
▁positive	-8.42451
▁operator	-8.42497
il	-8.42532
▁does	-8.42675
▁technique	-8.42872
0	-8.42877
▁role	-8.43016
scale	-8.43094
▁quasi	-8.43359
▁By	-8.43427
▁spaces	-8.43699
▁production	-8.43776
▁error	-8.43926
▁total	-8.44077
and	-8.4435
▁flux	-8.44367
▁dimension	-8.44387
▁algebra	-8.4453
▁addition	-8.44927
▁gravitational	-8.45039
7	-8.45281
▁along	-8.45394
▁approaches	-8.45681
times	-8.46018
▁calculations	-8.46032
▁momentum	-8.46221
▁available	-8.46475
▁existing	-8.46596
▁neural	-8.466
▁distributions	-8.46823
▁measured	-8.46874
^2	-8.47394
▁theorem	-8.47437
as	-8.47517
▁them	-8.47568
▁graphs	-8.47578
▁recently	-8.47642
▁global	-8.47796
▁clusters	-8.47959
▁modes	-8.48088
▁transport	-8.48165
▁objects	-8.48488
▁around	-8.48795
▁determine	-8.48867
ate	-8.48942
▁differential	-8.49034
▁ground	-8.49048
▁efficient	-8.49159
▁generalized	-8.49329
bar	-8.49486
▁compact	-8.49846
▁developed	-8.49869
▁simulation	-8.49918
8	-8.4992
▁context	-8.49936
▁disk	-8.50173
▁report	-8.50214
type	-8.5032
▁estimate	-8.5034
de	-8.50392
▁regions	-8.50514
▁length	-8.50666
at	-8.50712
▁construct	-8.50765
▁fixed	-8.50905
▁regime	-8.51287
gamma	-8.5142
et	-8.51488
ers	-8.51494
▁respect	-8.51523
em	-8.51659
order	-8.51684
▁defined	-8.51701
▁example	-8.51706
▁~	-8.51854
▁theories	-8.51857
▁masses	-8.51872
▁key	-8.5191
▁stochastic	-8.52133
▁training	-8.52869
▁coupled	-8.5294
▁background	-8.52944
▁search	-8.53059
▁short	-8.5313
im	-8.53278
pm	-8.53357
▁account	-8.53359
▁classification	-8.53485
▁thus	-8.53539
▁significantly	-8.536
▁develop	-8.53934
▁inter	-8.5407
ting	-8.54117
▁complete	-8.54214
▁h	-8.5442
▁description	-8.54554
▁examples	-8.54635
▁gravity	-8.54647
▁measurement	-8.5474
▁Model	-8.54868
▁quark	-8.54964
▁expected	-8.54986
▁massive	-8.55023
}\	-8.55068
▁binary	-8.55303
▁action	-8.55527
▁average	-8.55681
▁central	-8.55819
▁fundamental	-8.56024
▁neutrino	-8.56113
▁generated	-8.56344
▁strongly	-8.56579
▁independent	-8.5673
▁series	-8.57182
▁leads	-8.57434
ad	-8.57557
▁full	-8.57614
▁sets	-8.57674
▁natural	-8.57684
▁shows	-8.57694
▁whose	-8.5781
▁much	-8.57867
▁optimization	-8.57884
▁exact	-8.58324
co	-8.58331
▁band	-8.58398
▁larger	-8.58431
▁specific	-8.58442
▁channel	-8.58605
▁continuous	-8.58859
ment	-8.59076
▁direct	-8.59105
▁semi	-8.59216
▁Quantum	-8.59438
▁special	-8.59483
▁arbitrary	-8.59506
▁future	-8.59722
▁Moreover	-8.5977
ian	-8.59892
▁evidence	-8.60002
ary	-8.60031
▁molecular	-8.60436
▁geometry	-8.60527
▁end	-8.60536
ol	-8.60567
▁stability	-8.60613
▁dimensions	-8.60694
▁good	-8.61013
▁better	-8.61059
▁component	-8.61174
▁few	-8.61182
▁Q	-8.61214
▁degree	-8.61249
▁metric	-8.6125
▁components	-8.61417
▁symmetric	-8.61697
▁extended	-8.61904
ro	-8.6195
▁agreement	-8.62147
▁statistical	-8.62187
▁feature	-8.62562
▁transfer	-8.62652
▁research	-8.62748
▁resulting	-8.63075
▁code	-8.63153
▁resolution	-8.63191
▁described	-8.63297
~	-8.63487
▁being	-8.63855
nu	-8.63888
▁et	-8.63916
▁g	-8.63927
▁term	-8.64044
▁compute	-8.64257
▁fluctuations	-8.64425
▁compare	-8.6446
}(	-8.64523
▁above	-8.64535
un	-8.64579
dependent	-8.6472
▁sequence	-8.6484
▁neutron	-8.64864
▁introduced	-8.65118
▁bi	-8.65201
_\	-8.65366
▁bounds	-8.65388
▁analyze	-8.65565
▁x	-8.6557
▁maximum	-8.65692
ability	-8.65918
ating	-8.66408
▁plane	-8.66479
▁k	-8.66486
▁stable	-8.66579
▁radiation	-8.66582
▁tensor	-8.66589
▁discrete	-8.66612
▁invariant	-8.66614
▁investigated	-8.66638
um	-8.66652
▁solar	-8.6675
▁con	-8.66812
field	-8.66857
ge	-8.66876
▁suggest	-8.66898
▁entropy	-8.66927
▁change	-8.66949
▁relative	-8.67275
▁determined	-8.67448
▁Higgs	-8.67544
▁cosmological	-8.67596
▁estimation	-8.67804
▁scaling	-8.67844
▁close	-8.67845
▁normal	-8.67847
▁QCD	-8.68005
est	-8.68099
▁either	-8.68116
▁pair	-8.68127
▁functional	-8.68192
▁upper	-8.68385
▁expansion	-8.68512
▁additional	-8.68629
▁al	-8.68755
▁induced	-8.68777
▁among	-8.69281
▁less	-8.69454
▁population	-8.69482
▁task	-8.69559
▁complexity	-8.69559
▁respectively	-8.69647
▁efficiency	-8.69911
▁dimensional	-8.70427
▁polarization	-8.70815
▁Furthermore	-8.70836
▁proof	-8.70904
▁mode	-8.71147
j	-8.71319
▁variables	-8.71428
op	-8.7187
ri	-8.72088
▁rates	-8.72113
▁here	-8.72197
▁input	-8.72486
▁impact	-8.72893
▁asymptotic	-8.72894
▁predictions	-8.73043
log	-8.73169
id	-8.73179
▁best	-8.73189
▁nuclear	-8.73239
▁nature	-8.7324
▁should	-8.73296
end	-8.73563
▁target	-8.73572
▁generation	-8.73577
▁nano	-8.7361
▁elements	-8.7372
▁Co	-8.73966
▁formula	-8.74077
▁convergence	-8.7418
▁z	-8.74196
▁per	-8.74277
▁types	-8.74395
▁loss	-8.74507
ant	-8.74555
con	-8.74606
▁gap	-8.74695
▁--	-8.74847
▁apply	-8.74895
▁estimates	-8.74926
ir	-8.74955
▁growth	-8.75142
▁times	-8.7522
▁electronic	-8.75221
▁experiment	-8.75513
ated	-8.75752
▁Gaussian	-8.75843
▁after	-8.75907
\'	-8.76072
▁computational	-8.76073
▁lines	-8.76134
▁construction	-8.76245
▁6	-8.76457
▁increase	-8.7648
▁heavy	-8.76631
sigma	-8.76664
▁De	-8.76825
▁highly	-8.76935
Y	-8.77062
▁explicit	-8.7712
▁correlations	-8.77176
▁performed	-8.77193
▁identify	-8.77262
▁energies	-8.77266
▁wide	-8.77323
▁pressure	-8.77408
▁make	-8.7752
ities	-8.77553
▁lead	-8.77574
▁called	-8.77601
ra	-8.77755
▁classes	-8.77843
▁r	-8.77895
st	-8.77937
▁polynomial	-8.77947
▁shape	-8.77994
▁+	-8.7813
▁knowledge	-8.78416
▁edge	-8.78417
▁waves	-8.78477
9	-8.78495
▁least	-8.7857
ance	-8.78633
▁scales	-8.78671
▁Multi	-8.78697
▁core	-8.78756
▁conjecture	-8.78901
10	-8.79097
▁dynamic	-8.79363
am	-8.79447
▁like	-8.79498
▁contribution	-8.79502
▁every	-8.79696
▁property	-8.79774
▁double	-8.79999
body	-8.80051
beta	-8.80336
linear	-8.80341
▁photon	-8.80343
▁micro	-8.80495
▁angular	-8.80503
▁Hamiltonian	-8.80732
▁map	-8.80826
▁infinite	-8.80849
▁able	-8.81053
_2	-8.8117
▁collisions	-8.81304
▁II	-8.8131
▁would	-8.81386
▁calculate	-8.81399
▁product	-8.8148
▁Con	-8.81513
▁luminosity	-8.81609
▁closed	-8.81951
ne	-8.82039
▁previously	-8.82117
-1	-8.82231
▁improve	-8.82239
▁object	-8.8234
▁algebras	-8.82415
▁contrast	-8.82585
▁leading	-8.82593
▁representations	-8.82935
▁calculated	-8.82936
▁understanding	-8.83156
▁minimal	-8.83251
▁smooth	-8.8346
▁response	-8.83491
▁prediction	-8.83622
▁perform	-8.83681
lambda	-8.837
▁string	-8.83825
▁At	-8.83854
▁family	-8.83875
▁human	-8.84066
▁basis	-8.84264
▁diffusion	-8.84296
ter	-8.84354
▁magnitude	-8.84377
▁events	-8.84482
▁made	-8.84783
▁common	-8.8486
▁comparison	-8.8494
▁rotation	-8.84973
\"	-8.85064
▁fraction	-8.85187
▁index	-8.85376
▁environment	-8.85377
▁coefficients	-8.85402
▁means	-8.85409
▁di	-8.85587
▁often	-8.85728
▁curves	-8.85744
▁volume	-8.85798
▁reduction	-8.85862
▁fully	-8.85896
▁dust	-8.8608
▁electric	-8.86198
▁robust	-8.86294
▁cost	-8.86317
▁review	-8.86536
▁dataset	-8.86575
▁maps	-8.86594
▁GeV	-8.86598
▁sum	-8.86891
level	-8.86964
▁equilibrium	-8.87184
▁relevant	-8.87201
▁achieve	-8.87321
▁anti	-8.87584
▁changes	-8.87705
age	-8.87877
▁individual	-8.87892
▁machine	-8.87946
▁chiral	-8.88064
▁datasets	-8.88129
▁force	-8.8817
▁detected	-8.88223
▁far	-8.8831
ul	-8.88337
frac	-8.88505
▁literature	-8.88619
▁focus	-8.88737
▁relations	-8.88839
▁beam	-8.88967
▁plasma	-8.88989
▁fast	-8.88999
▁entanglement	-8.89095
▁Fermi	-8.8914
▁equivalent	-8.89145
energy	-8.89198
▁tasks	-8.89259
▁gamma	-8.89326
▁characteristic	-8.89367
man	-8.89441
▁layer	-8.89442
▁bulk	-8.89497
▁curvature	-8.89594
▁explore	-8.89616
▁allow	-8.89671
▁external	-8.89721
▁across	-8.89821
free	-8.89946
▁still	-8.90138
▁path	-8.90251
▁active	-8.90251
▁provided	-8.90527
▁cosmic	-8.90572
▁Non	-8.90584
▁orbital	-8.90614
Delta	-8.90665
▁0	-8.90749
▁redshift	-8.90852
▁version	-8.91045
▁increasing	-8.9107
band	-8.91084
▁law	-8.91087
▁article	-8.91282
▁solve	-8.91316
▁w	-8.91453
▁required	-8.91453
phi	-8.9173
▁samples	-8.91873
▁strength	-8.91953
▁chemical	-8.92212
▁absorption	-8.92215
▁question	-8.92249
▁amplitude	-8.92266
▁With	-8.92427
▁interest	-8.92534
▁reduced	-8.92597
▁material	-8.92664
▁19	-8.92953
▁negative	-8.92974
▁integral	-8.92991
▁include	-8.93146
▁numbers	-8.93183
state	-8.93184
▁$(	-8.93254
▁accretion	-8.93274
▁underlying	-8.93317
▁Monte	-8.93637
20	-8.93732
▁because	-8.93774
▁laser	-8.93829
▁liquid	-8.93927
▁relativistic	-8.9393
▁radius	-8.93977
▁variable	-8.9402
▁difference	-8.94064
▁support	-8.94122
▁scenario	-8.94189
▁accurate	-8.94235
▁matrices	-8.94291
▁extend	-8.94351
▁resonance	-8.94381
▁heat	-8.94393
▁transitions	-8.94467
▁materials	-8.94651
▁Learning	-8.94664
▁atomic	-8.94673
▁fact	-8.94767
infty	-8.94783
▁parallel	-8.94903
▁medium	-8.95009
▁speed	-8.95017
▁years	-8.95055
▁variety	-8.95127
▁period	-8.95148
▁geometric	-8.95327
▁origin	-8.95335
son	-8.95419
▁below	-8.95497
▁hard	-8.95778
▁define	-8.95778
▁surfaces	-8.95813
▁computation	-8.95976
▁extension	-8.96109
▁direction	-8.96249
▁threshold	-8.96305
om	-8.96332
mathrm	-8.96399
▁directly	-8.96447
wave	-8.96702
▁quality	-8.9674
▁survey	-8.96741
▁bounded	-8.96754
▁need	-8.96808
▁corrections	-8.97021
mass	-8.97092
▁address	-8.97559
▁explain	-8.97784
▁establish	-8.97895
▁mixing	-8.97941
▁pairs	-8.98248
▁step	-8.98439
▁dis	-8.98466
▁holes	-8.98615
%	-8.98638
▁gradient	-8.9872
▁($	-8.99059
$_2$	-8.99336
▁cannot	-8.99435
▁influence	-8.99441
Omega	-8.99591
▁procedure	-8.99594
▁computing	-8.99673
▁metal	-8.99718
▁atoms	-8.99731
▁communication	-8.99756
▁user	-8.99772
▁gives	-8.9995
▁formulation	-9.0001
▁factors	-9.00026
▁While	-9.00367
▁phases	-9.00374
▁regular	-9.0049
te	-9.00641
▁hand	-9.00735
▁devices	-9.00756
▁dual	-9.00824
▁distributed	-9.00962
▁connected	-9.0112
▁setting	-9.01207
▁periodic	-9.01211
▁When	-9.01275
▁position	-9.01315
$\	-9.01424
▁universal	-9.01556
▁detector	-9.01591
▁flat	-9.0165
▁8	-9.01675
▁Two	-9.01679
▁view	-9.01736
▁exchange	-9.01892
▁modeling	-9.01926
▁almost	-9.02013
▁fluid	-9.02435
▁limits	-9.02533
line	-9.02554
ut	-9.02899
▁predict	-9.02935
▁analytical	-9.03023
▁principle	-9.03145
▁early	-9.03195
tion	-9.03299
▁Based	-9.03348
▁smaller	-9.03489
▁evaluation	-9.03537
▁development	-9.03604
particle	-9.03663
▁One	-9.03791
▁Lie	-9.03841
▁necessary	-9.0408
▁whether	-9.04168
point	-9.04206
▁depends	-9.04323
▁predicted	-9.04421
▁towards	-9.04471
▁formalism	-9.04525
▁selection	-9.0462
▁temperatures	-9.04631
▁graphene	-9.048
▁Y	-9.04867
▁algebraic	-9.04943
ab	-9.05096
▁produced	-9.0514
▁partial	-9.05185
▁electrons	-9.05276
▁superconducting	-9.05303
▁however	-9.05335
▁Fe	-9.05401
0.0	-9.05484
▁radial	-9.05505
▁Carlo	-9.05598
▁observation	-9.05762
▁7	-9.05773
ens	-9.05966
▁down	-9.05986
▁behaviour	-9.06051
ence	-9.06099
tau	-9.06164
▁tool	-9.0618
▁language	-9.06215
▁ring	-9.06223
}$,	-9.06287
▁analytic	-9.06377
▁minimum	-9.06453
per	-9.06534
▁exhibit	-9.06784
▁imaging	-9.06808
ov	-9.06844
▁measures	-9.06999
▁peak	-9.07047
▁unique	-9.0709
space	-9.07097
ize	-9.07139
chi	-9.07174
▁detailed	-9.07293
▁l	-9.07309
▁dispersion	-9.07388
▁calculation	-9.07412
▁achieved	-9.07523
▁angle	-9.07547
▁curve	-9.07557
▁vacuum	-9.07597
▁useful	-9.07651
▁Dirac	-9.07679
less	-9.07818
▁jet	-9.07859
[	-9.07868
▁${\	-9.07932
▁thin	-9.07948
▁inverse	-9.08073
^{\	-9.08281
▁coherent	-9.08458
▁limited	-9.08473
▁beyond	-9.08767
▁perturbation	-9.0877
▁requires	-9.09091
▁latter	-9.09164
▁constructed	-9.09208
▁must	-9.09293
ine	-9.09461
▁patterns	-9.09642
▁La	-9.09695
ide	-9.09731
▁soft	-9.0987
▁Let	-9.10091
▁combination	-9.10131
▁If	-9.10165
▁memory	-9.1019
▁evaluate	-9.10228
ative	-9.10618
▁Pro	-9.10642
▁transverse	-9.10642
ry	-9.10732
▁alternative	-9.10791
▁generalization	-9.11041
▁First	-9.11309
▁users	-9.11483
▁chain	-9.11567
ous	-9.11614
ta	-9.11743
IR	-9.11754
form	-9.11781
▁produce	-9.1188
▁event	-9.1189
▁against	-9.119
▁equal	-9.11994
▁prior	-9.12026
▁Galactic	-9.12049
▁suitable	-9.12125
▁identified	-9.12132
▁sufficient	-9.12181
▁area	-9.12396
leq	-9.12502
▁structural	-9.12578
▁improved	-9.12586
▁increases	-9.12641
▁manifold	-9.12641
ling	-9.12739
▁statistics	-9.12828
▁transmission	-9.12901
▁original	-9.12961
▁st	-9.13059
▁generate	-9.13065
▁continuum	-9.13108
▁detect	-9.13223
▁decays	-9.13342
ring	-9.13346
▁charged	-9.13381
▁rather	-9.13475
▁v	-9.13475
▁implementation	-9.1359
▁become	-9.13804
ner	-9.13978
▁interacting	-9.1406
▁characteristics	-9.14069
iv	-9.14073
▁exist	-9.14082
▁contributions	-9.14124
▁final	-9.14125
Lambda	-9.14133
▁convex	-9.14167
▁subject	-9.14312
▁interesting	-9.14327
ium	-9.14358
▁systematic	-9.14403
Fe	-9.14405
▁driven	-9.14437
▁strategy	-9.14479
▁ultra	-9.14498
▁interpretation	-9.14501
ce	-9.14707
▁attention	-9.1472
ac	-9.14762
▁LHC	-9.14819
12	-9.14853
▁hyper	-9.14956
▁nodes	-9.15095
▁Such	-9.15235
ob	-9.15393
▁uncertainty	-9.15902
sqrt	-9.15915
▁disc	-9.15961
izing	-9.15974
▁broad	-9.1604
▁connection	-9.1607
omega	-9.16085
▁universe	-9.16087
▁since	-9.16183
▁spectroscopy	-9.1619
▁host	-9.16323
▁processing	-9.16336
^\	-9.16385
▁rank	-9.16413
eta	-9.16476
one	-9.16515
_1	-9.16552
tic	-9.16629
▁conventional	-9.16654
▁contact	-9.16808
▁combined	-9.16893
▁dense	-9.16953
com	-9.16971
ap	-9.16999
▁possibility	-9.1712
cal	-9.17186
epsilon	-9.17267
▁practical	-9.17287
▁relaxation	-9.17382
▁basic	-9.1739
▁trace	-9.17446
▁Deep	-9.17516
▁following	-9.17567
▁sensitivity	-9.17627
▁decomposition	-9.17745
▁temporal	-9.17818
▁concept	-9.17964
▁breaking	-9.18165
▁scenarios	-9.18184
▁Theory	-9.18278
▁observe	-9.18413
▁pseudo	-9.18438
▁schemes	-9.18442
▁diagram	-9.18465
▁appear	-9.18512
▁characterize	-9.18561
ial	-9.18619
range	-9.18686
rho	-9.19141
▁signals	-9.19146
▁configuration	-9.19148
▁tree	-9.19248
▁forms	-9.19315
▁kinetic	-9.19373
▁pattern	-9.19389
is	-9.19401
li	-9.19487
▁levels	-9.19611
▁goal	-9.19612
▁uniform	-9.19616
▁Data	-9.1962
=1	-9.19723
-2	-9.19737
▁Networks	-9.19771
▁SU	-9.19784
}^	-9.1983
▁unit	-9.19987
▁center	-9.19994
▁reduce	-9.20039
▁demonstrated	-9.20117
▁content	-9.20152
▁High	-9.20224
▁together	-9.20239
▁polynomials	-9.20272
▁half	-9.20273
▁channels	-9.20297
''	-9.2048
ies	-9.20684
ub	-9.20864
▁modified	-9.20871
10^	-9.20973
$)	-9.21064
▁Si	-9.21118
▁color	-9.21245
▁propagation	-9.21305
_0	-9.21312
▁indicate	-9.21367
▁element	-9.21435
▁electromagnetic	-9.21589
▁approximate	-9.2159
▁computer	-9.21691
▁degrees	-9.21724
▁intermediate	-9.21946
▁photo	-9.22067
▁explicitly	-9.22256
▁From	-9.22293
▁require	-9.22387
▁loop	-9.22586
▁codes	-9.22713
▁oscillations	-9.22789
ast	-9.22808
▁harmonic	-9.22811
▁becomes	-9.22829
▁dependent	-9.22855
▁what	-9.22857
▁likely	-9.22943
▁notion	-9.22968
▁variation	-9.23065
▁illustrate	-9.23202
ha	-9.23223
▁crystal	-9.23247
▁contains	-9.23297
▁interface	-9.23304
▁analyzed	-9.23497
▁cloud	-9.23498
▁manifolds	-9.23662
▁activity	-9.23792
▁inference	-9.23857
▁Bayesian	-9.23911
▁distinct	-9.24029
▁exponential	-9.24033
})$	-9.24243
▁separation	-9.24459
▁typical	-9.24476
▁therefore	-9.24548
▁AGN	-9.24615
▁precision	-9.24621
ag	-9.24704
ions	-9.24724
ig	-9.24745
▁profile	-9.24791
▁reported	-9.24871
▁exists	-9.25287
}$.	-9.25458
▁social	-9.25485
▁densities	-9.25531
▁seen	-9.25624
▁static	-9.25765
▁mechanisms	-9.25869
▁boson	-9.25936
}_	-9.25991
▁taken	-9.26051
▁halo	-9.26065
▁bias	-9.26147
text	-9.26244
▁instability	-9.2627
NN	-9.26314
▁homogeneous	-9.26337
▁learn	-9.26406
▁square	-9.26455
▁examine	-9.26612
)\	-9.26618
▁characterized	-9.26701
▁ion	-9.26757
ot	-9.26842
▁domains	-9.26875
^+	-9.26987
▁CP	-9.27203
characterization	-9.27204
ni	-9.27222
▁nuclei	-9.27222
la	-9.27246
▁aim	-9.27373
ill	-9.27389
▁Large	-9.27392
ism	-9.27417
▁ex	-9.27436
▁NGC	-9.27534
geq	-9.27643
ev	-9.27688
▁suggests	-9.27769
▁transformation	-9.2777
▁pro	-9.27792
▁architecture	-9.27828
▁layers	-9.27911
▁CO	-9.27964
▁help	-9.27981
▁top	-9.28059
▁fractional	-9.28186
▁phenomena	-9.28188
▁having	-9.28295
▁perturbations	-9.28313
ible	-9.28473
▁Ba	-9.2851
▁generic	-9.28671
▁sense	-9.28806
▁wind	-9.29178
▁Then	-9.29198
lic	-9.29224
▁depth	-9.29359
▁major	-9.29367
▁section	-9.29429
)$,	-9.29524
▁estimated	-9.29571
▁experimentally	-9.29575
}_{	-9.29658
▁TeV	-9.29767
▁excitation	-9.29914
▁visual	-9.29969
▁ideal	-9.29997
▁hot	-9.30101
▁reconstruction	-9.30344
▁shift	-9.30348
▁assumption	-9.30408
▁Einstein	-9.30538
▁yields	-9.30682
▁correlated	-9.30687
▁100	-9.30697
▁constraint	-9.30743
ph	-9.3075
▁finding	-9.30752
▁solving	-9.30811
▁intrinsic	-9.3082
▁Le	-9.30911
▁flows	-9.3095
▁Hall	-9.31003
▁variations	-9.31026
▁internal	-9.31102
▁errors	-9.31105
▁water	-9.31198
▁proved	-9.31309
ard	-9.31376
▁world	-9.31405
▁feedback	-9.31466
▁sensitive	-9.31493
▁3-	-9.31696
▁involving	-9.31697
ert	-9.31745
▁fit	-9.31784
▁sampling	-9.31871
▁amount	-9.31956
▁q	-9.32065
▁2-	-9.32101
▁makes	-9.32169
15	-9.32211
▁clustering	-9.3223
▁designed	-9.32261
▁conformal	-9.32315
▁proton	-9.32389
ivity	-9.32575
▁assumptions	-9.32602
▁inner	-9.32603
off	-9.3271
000	-9.3279
delta	-9.32797
▁access	-9.32798
▁computed	-9.32939
▁rise	-9.33035
▁mathematical	-9.33082
gen	-9.33209
ang	-9.33216
▁probe	-9.3323
ma	-9.33243
▁treatment	-9.33256
▁weight	-9.33276
▁transform	-9.33424
os	-9.33426
▁take	-9.33463
▁spacetime	-9.33466
▁uses	-9.33528
▁photons	-9.33582
▁challenging	-9.33618
▁mixed	-9.33648
▁composition	-9.33671
▁cell	-9.33723
▁pure	-9.33749
▁showing	-9.34062
isation	-9.34068
▁rational	-9.34084
induced	-9.34092
▁quadratic	-9.34092
me	-9.34159
▁Bi	-9.34168
▁another	-9.34308
ST	-9.34325
ru	-9.34461
▁St	-9.34474
50	-9.34593
▁numerically	-9.34611
▁solid	-9.34625
▁appropriate	-9.34665
▁configurations	-9.3468
▁software	-9.3468
ke	-9.34773
▁relatively	-9.34949
▁argue	-9.3499
▁hybrid	-9.3502
▁side	-9.35197
▁20	-9.35203
▁vertex	-9.3522
▁back	-9.3527
▁expression	-9.35275
tor	-9.35288
▁link	-9.35381
der	-9.35418
▁differences	-9.35485
▁extra	-9.35525
▁Analysis	-9.35552
▁Network	-9.35567
▁reaction	-9.3563
▁rule	-9.3566
out	-9.35773
▁established	-9.35793
▁importance	-9.35869
▁realistic	-9.35938
▁objective	-9.36025
▁coefficient	-9.36095
▁conclude	-9.36241
▁Space	-9.363
▁reveal	-9.36382
▁canonical	-9.36418
▁frequencies	-9.36444
▁sp	-9.36509
di	-9.36744
▁sequences	-9.36748
ES	-9.36908
mo	-9.36909
▁remains	-9.36957
▁New	-9.37227
ist	-9.37237
▁making	-9.37363
over	-9.37414
▁intensity	-9.37489
▁moment	-9.37546
▁elliptic	-9.37599
▁might	-9.37708
▁next	-9.37749
▁en	-9.37887
▁depend	-9.379
MC	-9.37995
▁especially	-9.37996
▁tools	-9.38027
ted	-9.38027
▁detail	-9.38154
II	-9.38186
▁enhanced	-9.38191
▁implies	-9.38441
Gamma	-9.38495
ip	-9.38503
▁Ca	-9.38552
SO	-9.38645
▁neutral	-9.38648
▁potentials	-9.38663
▁There	-9.38724
plane	-9.38791
▁turn	-9.38808
▁post	-9.38854
ack	-9.38872
▁topology	-9.38889
▁includes	-9.38967
ator	-9.38969
▁interference	-9.39071
▁upon	-9.39083
▁providing	-9.39222
loop	-9.39343
▁singular	-9.39349
theta	-9.39441
▁empirical	-9.39516
^2$	-9.39524
▁crucial	-9.39644
▁namely	-9.39743
▁magneto	-9.39823
▁mechanics	-9.39823
cite	-9.39983
16	-9.4005
▁output	-9.40409
▁profiles	-9.40452
▁Markov	-9.40528
▁yield	-9.40678
▁note	-9.40709
▁tri	-9.40745
▁relationship	-9.40892
▁Ma	-9.40946
ton	-9.41044
ors	-9.41045
▁five	-9.41141
▁maximal	-9.41142
IS	-9.41155
au	-9.41211
▁Standard	-9.41259
▁Lagrangian	-9.41293
▁fermions	-9.41313
▁dwarf	-9.41345
▁mechanical	-9.41607
▁traditional	-9.41684
▁consists	-9.41768
bi	-9.41856
ch	-9.41866
let	-9.4192
min	-9.41922
▁works	-9.41923
▁face	-9.41927
▁width	-9.4194
▁confirm	-9.41977
▁Some	-9.42001
▁anomalous	-9.42021
▁molecules	-9.42108
ile	-9.42149
▁observational	-9.42171
▁sign	-9.42217
▁implications	-9.42419
▁He	-9.4267
▁enables	-9.42695
▁vertices	-9.42865
quark	-9.431
he	-9.43109
▁matching	-9.43227
local	-9.43266
right	-9.43337
▁sparse	-9.43339
▁simultaneously	-9.43464
▁ratios	-9.43511
▁All	-9.43619
▁Neural	-9.43725
ii	-9.43817
▁locally	-9.43867
▁log	-9.44045
▁depending	-9.44093
▁shock	-9.44122
▁taking	-9.44225
psi	-9.44258
)$.	-9.44394
▁proper	-9.4444
known	-9.44463
▁Survey	-9.44524
▁understand	-9.44534
▁text	-9.44586
▁formed	-9.44588
CO	-9.44592
▁correct	-9.44621
▁project	-9.44626
▁($\	-9.44645
ect	-9.44645
▁Ex	-9.44697
▁horizon	-9.44701
▁place	-9.44713
xi	-9.44768
▁inside	-9.44915
▁play	-9.44917
PS	-9.45017
▁generally	-9.45041
▁integrated	-9.45097
▁shear	-9.45107
▁infrared	-9.45121
rich	-9.4525
▁kernel	-9.45271
,\	-9.45273
▁mapping	-9.45376
▁category	-9.45434
▁phenomenon	-9.4547
▁media	-9.45476
▁program	-9.45601
▁km	-9.45621
pl	-9.45669
Net	-9.45782
▁radiative	-9.45829
▁Although	-9.45846
▁occur	-9.45898
▁12	-9.45957
▁giant	-9.46033
▁localization	-9.46085
world	-9.46137
ci	-9.46177
▁before	-9.46202
▁appears	-9.46317
▁9	-9.46328
▁anisotropy	-9.46331
called	-9.46468
ep	-9.46481
},	-9.46513
▁Thus	-9.46547
▁considering	-9.4655
▁completely	-9.46605
▁freedom	-9.46772
▁strategies	-9.46815
▁slow	-9.46869
▁yet	-9.47024
▁adaptive	-9.47053
▁findings	-9.47069
▁choice	-9.47072
▁aspects	-9.4709
▁poly	-9.47136
▁purpose	-9.47144
▁stationary	-9.47207
ification	-9.47238
▁rules	-9.4726
▁partition	-9.47285
▁essential	-9.47334
▁capacity	-9.47379
▁integer	-9.47414
all	-9.47423
▁supersymmetric	-9.4744
▁thermodynamic	-9.47465
▁generating	-9.47508
ia	-9.47517
SS	-9.47609
▁hyperbolic	-9.47614
=2	-9.47719
30	-9.47756
▁unknown	-9.47815
ow	-9.47842
▁vortex	-9.47881
▁fine	-9.48018
▁frame	-9.48066
ical	-9.48084
oc	-9.48221
AR	-9.4837
▁anisotropic	-9.48387
▁couplings	-9.48397
13	-9.48491
▁sharp	-9.48524
14	-9.48532
mer	-9.48649
▁consequence	-9.48763
▁abundance	-9.48767
▁widely	-9.4885
▁metrics	-9.48892
▁naturally	-9.49055
term	-9.49076
})	-9.49121
▁last	-9.49202
=0	-9.49242
▁always	-9.49316
▁elastic	-9.49325
▁promising	-9.49461
▁amplitudes	-9.4952
}}	-9.49607
▁renormalization	-9.4961
▁risk	-9.49619
▁0.1	-9.49623
▁regression	-9.49818
lo	-9.49951
0$	-9.49979
▁device	-9.50033
▁disorder	-9.50088
pro	-9.50092
▁embedded	-9.50183
▁delay	-9.50203
▁acceleration	-9.50235
ration	-9.50302
▁Li	-9.50331
▁difficult	-9.50339
▁enhancement	-9.50397
▁implemented	-9.50426
▁Bose	-9.50429
▁symmetries	-9.50454
▁quantities	-9.5049
▁just	-9.50549
ite	-9.5064
▁ones	-9.5065
▁challenges	-9.50703
/\	-9.50825
▁challenge	-9.50938
hi	-9.51032
▁recognition	-9.51068
▁exactly	-9.51176
rs	-9.51185
▁Hilbert	-9.51206
▁observables	-9.51304
▁Systems	-9.51334
▁Un	-9.51356
▁dipole	-9.51392
ick	-9.51492
▁benchmark	-9.51615
18	-9.51663
▁narrow	-9.51663
▁according	-9.51682
layer	-9.51694
▁earlier	-9.51728
for	-9.51775
▁needed	-9.51787
▁hydrogen	-9.51792
▁Inter	-9.51835
our	-9.51861
▁Super	-9.51925
▁occurs	-9.51951
▁violation	-9.51968
▁block	-9.52097
▁spherical	-9.52282
▁cavity	-9.52395
▁planets	-9.52433
▁enough	-9.52573
▁decision	-9.52574
▁lack	-9.52738
▁variability	-9.52759
▁expressions	-9.5276
▁inequality	-9.52785
Co	-9.52981
▁polar	-9.52982
ie	-9.53046
▁excess	-9.53057
act	-9.53097
▁weighted	-9.53129
▁age	-9.53155
▁efficiently	-9.53171
▁weakly	-9.53206
▁selected	-9.53231
▁determination	-9.53329
▁tests	-9.53383
▁orders	-9.53441
▁exhibits	-9.53502
▁off	-9.53505
▁follow	-9.5362
▁They	-9.53726
▁Coulomb	-9.53758
po	-9.5384
▁describing	-9.53861
ons	-9.53892
▁reference	-9.53906
▁excitations	-9.53979
▁Telescope	-9.53989
▁joint	-9.54077
▁correction	-9.54108
ve	-9.54146
▁tight	-9.5424
▁capture	-9.54252
▁represent	-9.54279
DE	-9.54293
▁allowing	-9.54315
▁red	-9.54426
▁get	-9.54436
▁arise	-9.54582
▁moments	-9.54665
▁ability	-9.54666
▁comparable	-9.54683
PC	-9.54759
▁Field	-9.5477
▁online	-9.54791
▁candidate	-9.54795
▁Fourier	-9.54834
▁equivalence	-9.54916
▁base	-9.54996
▁planet	-9.55106
▁extract	-9.55111
▁cooling	-9.55138
▁precise	-9.55374
▁shell	-9.55415
by	-9.55435
▁orbits	-9.55482
▁Since	-9.55484
ler	-9.55541
▁trained	-9.55547
▁sector	-9.5565
SP	-9.55675
▁presents	-9.55741
▁norm	-9.55774
▁true	-9.55929
ward	-9.55952
driven	-9.55953
▁containing	-9.55973
▁contain	-9.56013
▁primary	-9.56066
▁localized	-9.56266
▁simulated	-9.56419
▁third	-9.56488
approx	-9.56538
▁improvement	-9.5656
fold	-9.56611
▁quantitative	-9.5671
▁Universe	-9.56715
ised	-9.56726
▁segmentation	-9.56825
(1)	-9.57003
^{1	-9.57123
ish	-9.57159
▁variational	-9.5719
▁typically	-9.57207
serv	-9.57259
ject	-9.57277
▁ensemble	-9.57289
▁operations	-9.57313
▁bands	-9.57389
▁UV	-9.5739
▁keV	-9.5741
▁splitting	-9.57445
▁overall	-9.57461
▁edges	-9.57461
uperconductivity	-9.57548
▁evaluated	-9.57553
▁Be	-9.57635
(2)	-9.57723
▁Poisson	-9.57814
tro	-9.57839
▁particularly	-9.57905
rightarrow	-9.5796
▁clear	-9.57992
▁protocol	-9.58084
low	-9.58127
▁effectiveness	-9.58148
▁Results	-9.58214
▁nearly	-9.5823
DM	-9.58268
▁collapse	-9.58361
▁carried	-9.58543
▁u	-9.5855
▁spectroscopic	-9.58554
ER	-9.5856
▁Di	-9.58603
▁turbulence	-9.58619
▁cm	-9.58761
structure	-9.58875
▁conductivity	-9.58931
▁Energy	-9.59027
▁pulse	-9.59081
▁constrained	-9.59145
▁decrease	-9.59227
▁agents	-9.59319
meter	-9.59336
vers	-9.59365
▁atom	-9.59372
photon	-9.59472
▁magnetization	-9.59596
▁Mo	-9.59629
▁idea	-9.59851
▁films	-9.59907
▁usually	-9.59927
▁whole	-9.59979
▁Spin	-9.60012
▁operation	-9.60081
mon	-9.60084
▁Numerical	-9.60154
▁definition	-9.6017
▁young	-9.6017
▁deformation	-9.60171
graph	-9.60175
▁distances	-9.60209
▁forward	-9.6024
}^{	-9.60274
▁orbit	-9.60277
▁game	-9.60327
▁environments	-9.60354
resolution	-9.60438
▁15	-9.6048
▁testing	-9.60561
▁asymmetry	-9.6059
}=	-9.60662
ty	-9.60677
▁prime	-9.60737
sis	-9.60809
▁cold	-9.60829
▁identification	-9.60837
▁transformations	-9.60954
11	-9.60963
▁science	-9.61071
▁orientation	-9.61326
▁reach	-9.61341
▁issue	-9.61357
tri	-9.61389
▁stress	-9.61443
ger	-9.61473
▁right	-9.61541
law	-9.61578
▁build	-9.61638
▁employ	-9.61648
qu	-9.61682
ll	-9.61757
$_{	-9.61772
▁issues	-9.61812
▁location	-9.6182
17	-9.61874
▁embedding	-9.61877
▁modulation	-9.62251
▁pi	-9.62252
▁exponent	-9.62378
▁generalize	-9.6239
Se	-9.62406
}}$	-9.62428
▁$2	-9.62517
▁projective	-9.62534
▁call	-9.62622
▁galactic	-9.62656
▁Ro	-9.62709
fi	-9.62778
▁orthogonal	-9.62859
ning	-9.62862
▁sufficiently	-9.6299
▁security	-9.6308
▁discovery	-9.63083
▁rich	-9.6317
▁describes	-9.63172
▁tunneling	-9.63187
▁excited	-9.63232
▁species	-9.63237
MA	-9.63308
▁Time	-9.63431
▁Therefore	-9.63465
▁remain	-9.63492
▁modules	-9.635
od	-9.63523
▁integration	-9.63529
ho	-9.6353
▁semantic	-9.63539
▁varying	-9.63584
▁takes	-9.63593
▁pion	-9.63653
go	-9.6371
▁usual	-9.63753
▁nucleon	-9.63833
▁controlled	-9.63858
▁affect	-9.63869
▁concentration	-9.6389
▁collective	-9.63909
fer	-9.63953
▁easily	-9.63976
▁grid	-9.64047
▁perspective	-9.641
istic	-9.64136
▁arising	-9.64147
▁moduli	-9.64288
▁applying	-9.643
▁node	-9.64388
▁gain	-9.64416
▁flavor	-9.64426
▁logic	-9.64542
▁six	-9.64654
▁progress	-9.64662
mode	-9.64719
ib	-9.64746
▁subset	-9.64752
▁rotating	-9.64755
▁video	-9.64756
normal	-9.64773
▁explained	-9.64814
be	-9.64829
▁Recent	-9.64862
spin	-9.64864
▁now	-9.64904
40	-9.64932
sum	-9.64935
▁uncertainties	-9.64957
▁moving	-9.64989
▁MeV	-9.65018
▁detectors	-9.65069
▁Ch	-9.65137
▁sections	-9.65181
▁assume	-9.65217
=\	-9.65352
▁suggested	-9.65408
▁caused	-9.65438
▁hypothesis	-9.65438
▁powerful	-9.65451
▁carbon	-9.65612
tt	-9.65714
▁products	-9.6583
▁Sub	-9.65888
▁instead	-9.6591
▁assumed	-9.65952
▁families	-9.65955
ak	-9.66073
▁outer	-9.66177
▁candidates	-9.66208
AS	-9.66312
▁planar	-9.66318
▁Specifically	-9.66403
▁constrain	-9.66498
▁absolute	-9.66499
▁rest	-9.66557
▁perturbative	-9.6658
ene	-9.66582
▁neutrinos	-9.66596
▁avoid	-9.66675
▁After	-9.66709
qui	-9.66719
▁gluon	-9.66738
▁inflation	-9.66785
▁correspondence	-9.6684
vis	-9.66863
▁strain	-9.66887
▁Models	-9.66905
▁white	-9.66988
ach	-9.6705
▁solved	-9.67067
▁resonant	-9.67075
▁picture	-9.67087
LS	-9.67108
▁advantage	-9.67139
odot	-9.67179
▁approximately	-9.67286
▁metallicity	-9.67306
▁Both	-9.67635
2)	-9.67806
ud	-9.67845
▁past	-9.67849
las	-9.67952
▁velocities	-9.6812
consistent	-9.6825
▁variance	-9.68297
port	-9.68379
▁interval	-9.68413
▁polarized	-9.68465
_2$	-9.68515
^3	-9.68758
19	-9.68871
▁explanation	-9.68873
▁dominant	-9.68893
▁increased	-9.68933
▁cells	-9.69032
▁coherence	-9.69037
trivial	-9.69051
▁spatially	-9.69082
▁market	-9.69083
▁synthetic	-9.69211
tract	-9.69219
orbit	-9.69254
▁'	-9.69416
}(\	-9.69427
MS	-9.69493
▁ferromagnetic	-9.69609
▁whereas	-9.69726
▁robustness	-9.69789
▁dominated	-9.69808
▁fermion	-9.69848
60	-9.69968
▁cohomology	-9.69993
▁meson	-9.70002
▁extensive	-9.70032
▁recover	-9.70095
▁highlight	-9.70154
▁virtual	-9.7017
ice	-9.70251
ba	-9.70274
SE	-9.70306
▁already	-9.7043
Sigma	-9.70508
▁Local	-9.7057
▁investigation	-9.70697
▁disks	-9.70783
▁achieves	-9.70815
IC	-9.71126
▁microscopic	-9.71142
▁criterion	-9.71249
▁assess	-9.71308
▁allowed	-9.71329
symmetric	-9.71339
▁tested	-9.71441
▁invariants	-9.71442
▁barrier	-9.71451
▁Given	-9.71456
0.1	-9.71456
▁outperforms	-9.71466
▁actions	-9.71577
▁entire	-9.71583
▁extreme	-9.71696
circ	-9.71723
▁resonances	-9.71848
▁cycle	-9.71891
wise	-9.71911
ified	-9.71941
▁asymptotically	-9.72058
electron	-9.72125
red	-9.72143
ual	-9.72189
▁steady	-9.72193
].	-9.72289
▁General	-9.72337
▁collision	-9.72384
▁hence	-9.72394
▁parts	-9.72466
na	-9.72488
▁axis	-9.72516
▁employed	-9.72536
▁technology	-9.72556
▁Ar	-9.72561
▁discovered	-9.72582
▁questions	-9.72636
▁System	-9.72649
▁absence	-9.72674
Re	-9.72707
▁chains	-9.72734
AM	-9.72798
ver	-9.72978
▁More	-9.72994
▁inequalities	-9.7301
▁singularities	-9.73027
▁forces	-9.73108
▁transient	-9.73188
▁Low	-9.73261
forming	-9.73289
ex	-9.73296
▁bright	-9.73347
▁constants	-9.73379
▁photometric	-9.73471
▁spiral	-9.73493
▁SN	-9.73551
▁jets	-9.73672
▁Recently	-9.7371
▁circular	-9.73753
▁offer	-9.73756
▁reveals	-9.73775
▁policy	-9.73904
▁quantization	-9.73982
ET	-9.74058
SI	-9.74079
▁assuming	-9.74107
▁popular	-9.74129
▁contribute	-9.74133
▁En	-9.74158
▁driving	-9.74168
kappa	-9.7419
▁consisting	-9.74192
▁implement	-9.74261
▁satisfy	-9.74377
▁mo	-9.74414
ose	-9.74421
$_3$	-9.74469
▁13	-9.74481
▁odd	-9.74509
▁enable	-9.74522
25	-9.74574
▁indicates	-9.74609
▁effectively	-9.74664
▁duality	-9.74708
bf	-9.74734
▁directions	-9.74763
rate	-9.74765
temperature	-9.7478
▁character	-9.74914
▁affine	-9.7507
io	-9.7508
▁diagrams	-9.75138
▁itself	-9.75157
▁Schr	-9.75204
(1	-9.75217
phase	-9.75256
▁probabilistic	-9.75264
▁perfect	-9.75281
▁database	-9.75315
vector	-9.75322
▁Galaxy	-9.75384
0.5	-9.75419
▁Yang	-9.75419
▁Lorentz	-9.75487
bit	-9.75487
▁extremely	-9.75606
▁meta	-9.75645
frequency	-9.75728
▁invariance	-9.75899
▁Type	-9.75979
▁lattices	-9.75996
▁tail	-9.76005
gg	-9.76041
▁binaries	-9.76042
mm	-9.76122
ibility	-9.76131
▁create	-9.76151
▁Under	-9.76209
▁reflection	-9.76236
▁sensor	-9.76321
▁body	-9.76376
▁stage	-9.76411
▁clouds	-9.7643
▁deterministic	-9.76471
▁greater	-9.76547
▁faster	-9.76553
▁building	-9.76559
▁mainly	-9.76656
ure	-9.76698
▁30	-9.76733
invariant	-9.76739
▁minimize	-9.76798
▁AdS	-9.76946
▁Al	-9.77288
▁valid	-9.77355
RS	-9.7747
▁companion	-9.77532
▁populations	-9.77544
▁array	-9.77566
▁holds	-9.77608
▁analyses	-9.77671
▁unitary	-9.7768
infrared	-9.77739
▁ions	-9.7779
▁cut	-9.77797
+\	-9.77836
▁Further	-9.77904
ti	-9.77924
emph	-9.78033
▁great	-9.78118
100	-9.78134
▁asymmetric	-9.78146
▁done	-9.78174
▁Earth	-9.78219
▁requirements	-9.78237
▁analytically	-9.78382
▁estimator	-9.78417
▁categories	-9.78537
▁studying	-9.78599
▁voltage	-9.78622
▁manner	-9.78624
(3)	-9.78677
▁train	-9.78705
▁Structure	-9.7873
▁wavelength	-9.7886
ise	-9.789
▁(2	-9.78947
▁surveys	-9.79027
parameter	-9.79069
▁extensions	-9.79073
magnetic	-9.79086
ee	-9.79112
▁bar	-9.79121
▁programming	-9.79148
▁combinatorial	-9.79185
not	-9.7923
▁eigenvalues	-9.7932
▁translation	-9.79351
▁sphere	-9.79424
▁although	-9.79442
onic	-9.79461
_1$	-9.79508
▁HI	-9.79535
▁collection	-9.79548
^0	-9.79575
AC	-9.79587
CA	-9.79587
▁rotational	-9.79607
▁polymer	-9.79666
▁extracted	-9.79755
▁hidden	-9.79821
▁condensate	-9.7984
In	-9.79864
▁regimes	-9.7997
^-	-9.79971
▁comparing	-9.7998
▁deal	-9.79985
left	-9.80081
▁supernova	-9.80132
▁crystals	-9.80133
▁left	-9.8026
OS	-9.80322
▁16	-9.8037
▁bond	-9.80413
▁methodology	-9.80425
▁Magnetic	-9.80501
_0$	-9.80604
+1	-9.80621
▁Euclidean	-9.80714
▁enhance	-9.80799
▁theoretically	-9.80815
rain	-9.80885
▁unstable	-9.80951
▁reduces	-9.80969
▁formulas	-9.81008
int	-9.81035
▁collected	-9.81058
▁Green	-9.81072
uch	-9.81123
▁quarks	-9.8116
▁proportional	-9.81161
▁traffic	-9.8117
▁Landau	-9.81186
▁filter	-9.81268
▁weights	-9.81293
PT	-9.81323
tr	-9.81365
▁formal	-9.81394
▁sizes	-9.81434
DA	-9.81497
▁adversarial	-9.81522
▁module	-9.81526
▁likelihood	-9.81531
▁modular	-9.81573
hole	-9.81615
▁resources	-9.81788
ations	-9.81869
lu	-9.81885
▁distinguish	-9.81999
▁improves	-9.82025
▁branching	-9.82055
▁mis	-9.82089
ology	-9.82134
her	-9.82138
▁community	-9.82187
▁evolutionary	-9.82257
▁dissipation	-9.82284
▁onto	-9.82403
▁trajectories	-9.82436
▁phonon	-9.82443
sh	-9.82464
▁+/-	-9.82467
gan	-9.82479
▁resource	-9.82544
▁composite	-9.82551
▁quite	-9.82581
▁Weyl	-9.82584
▁No	-9.82615
▁rare	-9.82635
(2	-9.82733
▁Ising	-9.82743
ster	-9.82797
▁Dark	-9.82798
▁bosons	-9.82876
ntiferromagnetic	-9.83032
▁IR	-9.83058
▁anomaly	-9.83136
valued	-9.83284
▁0.2	-9.83305
▁nm	-9.83366
▁superconductors	-9.83377
▁Dis	-9.83379
▁practice	-9.83408
LE	-9.83418
▁hierarchical	-9.83427
▁isotropic	-9.83435
▁kind	-9.83512
non	-9.8359
val	-9.83591
CS	-9.83642
▁corresponds	-9.8366
▁wall	-9.83702
▁nearby	-9.83747
lin	-9.83851
▁derivation	-9.83851
▁vectors	-9.83956
EM	-9.83993
▁baryon	-9.84011
▁Phase	-9.84276
metric	-9.84286
▁located	-9.84312
▁quantify	-9.84347
▁reproduce	-9.84464
uc	-9.84531
▁answer	-9.84585
FT	-9.84587
▁SO	-9.84602
▁coordinate	-9.84839
par	-9.84859
spect	-9.84987
▁Car	-9.85034
equilibrium	-9.85079
▁microwave	-9.85154
▁cubic	-9.85158
▁singularity	-9.85245
ue	-9.85341
▁currently	-9.85348
▁history	-9.8535
▁Experimental	-9.8539
▁showed	-9.85439
▁observable	-9.85459
ier	-9.85549
▁break	-9.8556
▁modelling	-9.85571
▁instance	-9.85586
▁look	-9.85654
▁slope	-9.85658
▁combining	-9.85663
cdot	-9.85742
▁oscillation	-9.85748
▁late	-9.85828
mat	-9.85845
fin	-9.85869
▁decreases	-9.85997
▁identical	-9.86011
eg	-9.86108
ening	-9.86121
gu	-9.86153
▁serve	-9.86226
▁turbulent	-9.86236
we	-9.86276
▁lifetime	-9.86363
HE	-9.86425
▁acoustic	-9.86611
▁degenerate	-9.86619
▁convolutional	-9.8667
▁front	-9.86697
▁largest	-9.86718
▁approximations	-9.86811
ech	-9.86909
▁Bo	-9.86921
▁word	-9.86971
▁muon	-9.87005
▁mobile	-9.87028
Si	-9.87034
action	-9.87072
▁demand	-9.87084
SM	-9.8709
▁similarity	-9.87111
▁residual	-9.87184
▁commonly	-9.87192
▁varieties	-9.87222
ore	-9.87338
▁Control	-9.87413
▁Image	-9.87414
▁abundances	-9.87592
▁0.5	-9.87745
▁derivative	-9.87763
Einstein	-9.87763
▁iso	-9.87791
mathbf	-9.87823
▁sigma	-9.87825
▁list	-9.87881
▁cosmology	-9.88112
05	-9.88128
ably	-9.88171
▁Group	-9.88186
▁rings	-9.88291
▁mid	-9.88308
0.2	-9.88311
▁column	-9.88361
late	-9.88379
▁track	-9.88396
▁electro	-9.88484
ping	-9.88578
▁follows	-9.88606
▁kpc	-9.88616
▁walk	-9.88749
▁trees	-9.88789
▁projection	-9.88805
▁consistency	-9.88823
▁iterative	-9.88884
▁logarithmic	-9.88958
▁electrical	-9.89064
▁ordering	-9.89085
▁Qu	-9.89124
▁gate	-9.89136
▁GHz	-9.89275
tal	-9.89285
▁infinity	-9.89294
▁revealed	-9.89373
LA	-9.89393
part	-9.8941
▁Sp	-9.8942
▁confidence	-9.89429
}{	-9.89464
CP	-9.89528
▁ordinary	-9.89599
▁restricted	-9.89663
▁lepton	-9.89678
▁reflect	-9.89728
▁fusion	-9.89956
▁integrals	-9.89981
▁alpha	-9.90005
-3	-9.90021
▁fitting	-9.90044
▁compatible	-9.90073
▁Also	-9.90176
▁trans	-9.90236
▁probabilities	-9.90294
▁hierarchy	-9.90346
hat	-9.90388
▁agent	-9.90405
with	-9.90438
▁experience	-9.9045
▁accurately	-9.90471
▁Br	-9.90529
▁interpreted	-9.90555
▁Detection	-9.90586
▁1$	-9.90636
▁understood	-9.90648
▁ch	-9.90664
land	-9.9069
▁steps	-9.90744
▁successfully	-9.90786
▁partially	-9.90786
▁pulsar	-9.90878
▁Second	-9.90933
cent	-9.90938
▁setup	-9.90944
kin	-9.91027
▁realized	-9.91058
]$	-9.91082
ome	-9.91082
vi	-9.91166
▁ordered	-9.91181
^{-	-9.91184
▁expressed	-9.91189
▁50	-9.91205
ory	-9.91271
▁criteria	-9.91293
▁(19	-9.9132
▁pairing	-9.91328
▁Dynamics	-9.91396
▁11	-9.91399
▁laws	-9.91417
▁unified	-9.91455
▁hadronic	-9.91533
▁regularization	-9.91584
Mills	-9.91615
ess	-9.91631
▁isolated	-9.91643
)=	-9.91673
▁verify	-9.91673
▁longitudinal	-9.91698
ric	-9.91737
▁eigen	-9.91757
do	-9.91763
▁determining	-9.91846
▁paths	-9.9187
He	-9.91927
light	-9.91935
ful	-9.91941
▁Linear	-9.91991
ran	-9.92047
▁Random	-9.92058
▁wireless	-9.92183
tent	-9.92221
▁signature	-9.92317
Te	-9.92323
▁parametric	-9.92325
▁analogue	-9.92392
tin	-9.92464
▁heating	-9.92531
sec	-9.92533
▁potentially	-9.92564
▁entangled	-9.92567
tra	-9.92648
▁areas	-9.9268
▁Ge	-9.92734
▁Hubble	-9.92748
▁paradigm	-9.92797
▁planetary	-9.92818
▁comp	-9.92827
lock	-9.92839
set	-9.92845
▁involves	-9.92916
▁privacy	-9.92919
▁confirmed	-9.92942
▁included	-9.92943
▁cone	-9.93035
▁responsible	-9.93037
▁briefly	-9.93074
▁lensing	-9.93133
▁qubit	-9.93178
flow	-9.93186
▁sensing	-9.93192
▁success	-9.9323
▁pose	-9.93262
▁Se	-9.93267
matic	-9.93278
▁defects	-9.93302
▁irreducible	-9.93315
▁possibly	-9.93362
▁thickness	-9.93393
independent	-9.93446
▁cr	-9.93456
▁cl	-9.93567
▁measuring	-9.93595
▁root	-9.93634
▁boundaries	-9.93703
pp	-9.93804
▁telescope	-9.93822
▁signatures	-9.93843
▁precisely	-9.93849
▁attacks	-9.93933
▁storage	-9.93945
und	-9.94034
▁chosen	-9.94064
▁tracking	-9.94077
▁intersection	-9.94131
▁radii	-9.94134
▁integrable	-9.94147
▁concepts	-9.94148
▁conditional	-9.94156
▁capable	-9.94195
▁brane	-9.94196
▁act	-9.94197
▁Na	-9.94271
▁regularity	-9.94313
classical	-9.94372
tan	-9.94377
▁represented	-9.94473
▁separate	-9.94523
comp	-9.94557
▁rapid	-9.94613
▁connections	-9.94685
▁secondary	-9.94717
top	-9.94726
▁discussion	-9.94741
ign	-9.94856
31	-9.94892
▁conductance	-9.94981
▁exploit	-9.95042
▁Heisenberg	-9.95046
▁trap	-9.95085
br	-9.95101
▁synthesis	-9.95107
▁elementary	-9.95178
▁Search	-9.95181
▁built	-9.95249
ord	-9.95291
▁calibration	-9.95298
sphere	-9.95347
▁Theorem	-9.95393
▁alignment	-9.95435
▁null	-9.95438
▁covering	-9.95447
▁symplectic	-9.95456
▁dielectric	-9.9554
king	-9.95605
density	-9.95643
▁hold	-9.9569
ski	-9.95715
▁oscillator	-9.9574
▁branch	-9.9581
▁consequences	-9.95826
▁supersymmetry	-9.95843
▁tidal	-9.96029
▁sites	-9.96035
▁divergence	-9.96036
SC	-9.96099
SA	-9.96111
▁Par	-9.96141
▁little	-9.96144
▁modern	-9.962
▁reliable	-9.96215
▁hadron	-9.96291
ear	-9.96292
▁Mass	-9.96298
▁superfluid	-9.96315
▁comprehensive	-9.96392
▁Pe	-9.96474
▁14	-9.96476
▁words	-9.96482
▁excellent	-9.96509
▁glass	-9.96511
bl	-9.96512
▁Euler	-9.96546
▁suggesting	-9.96568
relativistic	-9.96571
▁artificial	-9.9663
mod	-9.96647
MD	-9.96669
▁extends	-9.96677
▁Or	-9.96679
▁blue	-9.96705
ay	-9.96707
▁18	-9.96738
▁turns	-9.96746
▁coordinates	-9.96764
pt	-9.96785
▁arises	-9.96864
PI	-9.96865
▁Many	-9.96883
mathfrak	-9.96897
▁photonic	-9.96941
▁rapidly	-9.96948
▁applicable	-9.96975
▁Sh	-9.97022
▁proposal	-9.9703
08	-9.97065
▁published	-9.97131
▁scientific	-9.97153
^-$	-9.97171
▁settings	-9.97177
ron	-9.97199
▁1-	-9.97253
▁theorems	-9.97269
▁macroscopic	-9.97282
▁principal	-9.97342
CN	-9.97357
▁ensure	-9.97418
0.3	-9.97477
cm	-9.97478
▁toward	-9.97482
▁Ha	-9.97493
▁counter	-9.97505
▁abelian	-9.97506
▁Ga	-9.97561
▁Rev	-9.9762
▁relate	-9.97661
▁longer	-9.97668
▁astrophysical	-9.97756
▁qubits	-9.97762
▁Cu	-9.97774
zero	-9.97784
▁broken	-9.97829
▁lowest	-9.97833
▁though	-9.97833
▁film	-9.97955
▁massless	-9.98213
▁zone	-9.98307
▁correspond	-9.98318
▁Chern	-9.98323
ological	-9.98342
▁Graph	-9.98369
04	-9.98378
▁beta	-9.9839
▁pulses	-9.98406
▁read	-9.98419
▁metallic	-9.98422
▁introducing	-9.98443
▁running	-9.9845
ts	-9.98459
▁nonlocal	-9.98485
LO	-9.98496
▁Approach	-9.98556
amp	-9.98562
▁split	-9.98569
▁spread	-9.98582
SD	-9.98599
▁author	-9.98649
▁(1)	-9.9865
ight	-9.98672
UV	-9.98674
lan	-9.98708
SR	-9.98727
▁mag	-9.98754
▁atmospheric	-9.98782
▁parton	-9.98869
▁adiabatic	-9.98885
▁details	-9.98897
▁doping	-9.98932
star	-9.98982
▁height	-9.98996
▁links	-9.99053
▁check	-9.99062
modal	-9.99063
▁starting	-9.99069
▁superconductor	-9.99079
▁put	-9.99099
▁fiber	-9.99152
▁chaotic	-9.99242
Al	-9.99262
▁relativity	-9.9927
bo	-9.99279
▁Do	-9.99443
▁Brownian	-9.99456
▁Planck	-9.99472
▁latent	-9.99485
cluster	-9.99488
▁Ne	-9.99583
DP	-9.99625
1$	-9.99625
As	-9.99633
CC	-9.99638
han	-9.9972
▁CMB	-9.99724
▁relies	-9.99762
],	-9.99779
▁query	-9.9979
sky	-9.99802
▁loops	-9.99839
▁sequential	-9.99927
▁satisfies	-9.99933
ern	-9.99934
▁biological	-9.99998
▁10^{	-10.0004
1,	-10.0015
▁mesons	-10.0025
▁involved	-10.0032
▁bio	-10.0033
▁cover	-10.0034
▁plays	-10.0035
▁(2)	-10.0035
▁twist	-10.0038
▁Most	-10.0049
GR	-10.0053
▁intra	-10.0055
▁realization	-10.0056
▁resolved	-10.0056
ten	-10.0056
▁infer	-10.0061
▁0$	-10.0063
▁days	-10.0068
▁public	-10.008
ulation	-10.0082
▁drift	-10.009
▁brightness	-10.0094
▁Dr	-10.0095
▁run	-10.01
▁redshifts	-10.0101
▁searches	-10.0105
▁situation	-10.0106
▁created	-10.0121
▁reactions	-10.0121
▁ionization	-10.0132
+1)	-10.0138
▁sound	-10.0143
ca	-10.0149
▁mixture	-10.0156
01	-10.0178
▁compression	-10.0179
▁camera	-10.0184
▁highest	-10.0187
80	-10.019
▁Riemann	-10.0193
▁interpret	-10.0195
▁arc	-10.02
▁drop	-10.0202
section	-10.0203
▁engineering	-10.0207
▁price	-10.0208
▁platform	-10.0208
▁interstellar	-10.0209
09	-10.0211
way	-10.0217
▁nucleus	-10.0225
▁viscosity	-10.0237
▁indicating	-10.024
▁limiting	-10.0247
▁games	-10.0247
▁photometry	-10.0247
odinger	-10.0248
lat	-10.0251
▁bundle	-10.0254
▁extraction	-10.0256
▁complement	-10.0257
▁causal	-10.0262
cap	-10.0273
▁conservation	-10.0277
^{-1}	-10.0281
ates	-10.0282
▁Matter	-10.0285
200	-10.029
▁authors	-10.0291
▁produces	-10.0295
▁torus	-10.0298
▁site	-10.0301
▁hydrodynamic	-10.0308
ga	-10.0313
▁dwarfs	-10.0316
ake	-10.0317
▁monitoring	-10.0319
1-	-10.0325
▁diffraction	-10.0328
▁learned	-10.0337
▁satellite	-10.0339
▁lens	-10.0339
▁$1	-10.0353
▁too	-10.0359
▁CNN	-10.0366
▁fluctuation	-10.0367
▁electroweak	-10.0373
▁pixel	-10.0374
▁principles	-10.0375
tu	-10.0383
BH	-10.0387
▁composed	-10.0395
▁insulator	-10.04
06	-10.0402
▁Due	-10.0404
▁slightly	-10.0409
ood	-10.0411
press	-10.0411
▁vanishing	-10.0433
▁baseline	-10.0438
▁defect	-10.0441
av	-10.0445
▁DM	-10.0451
$^{-1}$	-10.0453
▁expectation	-10.0455
▁currents	-10.0458
▁Black	-10.0459
▁insights	-10.0459
mp	-10.0463
▁0.3	-10.0465
▁start	-10.0469
▁Star	-10.0477
periodic	-10.0479
▁concerning	-10.0482
sc	-10.0485
▁mirror	-10.0487
▁eV	-10.0488
▁circuit	-10.049
▁(1	-10.0493
SU	-10.0495
AT	-10.0504
▁appearance	-10.0508
thermal	-10.0508
▁architectures	-10.0509
▁arguments	-10.0509
▁vi	-10.0515
▁Riemannian	-10.0516
AN	-10.0518
▁coding	-10.0519
▁factorization	-10.052
▁automatically	-10.0523
atic	-10.0539
▁SM	-10.0539
use	-10.0544
▁analyzing	-10.0551
▁see	-10.0556
▁thereby	-10.0561
▁association	-10.0565
▁min	-10.0572
▁inhomogeneous	-10.0579
_3	-10.0582
NS	-10.0584
▁analogous	-10.0585
▁40	-10.0587
▁Pre	-10.0588
▁missing	-10.0594
▁Cloud	-10.0596
07	-10.0598
EP	-10.0607
▁Wave	-10.0607
▁speech	-10.0609
▁purely	-10.0614
ret	-10.0617
▁disease	-10.0618
^{2	-10.0628
▁confined	-10.0631
▁Ad	-10.0632
▁supported	-10.0634
sun	-10.0639
▁Several	-10.064
izable	-10.0642
CDM	-10.0646
▁he	-10.0653
▁spontaneous	-10.0653
▁attack	-10.0654
▁etc	-10.0656
ber	-10.0662
▁eigenvalue	-10.0664
convex	-10.0667
▁modification	-10.067
▁rely	-10.0682
▁cause	-10.0685
▁load	-10.0692
▁Additionally	-10.0698
textit	-10.0703
no	-10.0706
▁diameter	-10.0711
▁protocols	-10.0715
▁hardware	-10.0725
5%	-10.073
equ	-10.0731
▁colour	-10.0732
▁closely	-10.0735
▁Pa	-10.0737
▁stronger	-10.0741
▁uni	-10.0743
▁covariance	-10.0747
▁aims	-10.0748
▁deviation	-10.0754
ound	-10.0755
dis	-10.0761
▁satisfying	-10.0765
▁jump	-10.0767
▁parity	-10.0774
formation	-10.0795
▁Solar	-10.0803
les	-10.0806
▁atmosphere	-10.0807
▁handle	-10.0808
EC	-10.0814
▁represents	-10.0816
▁noisy	-10.0816
▁identity	-10.0818
▁homology	-10.0825
PE	-10.083
ino	-10.0835
▁Ni	-10.0836
▁ways	-10.0841
ou	-10.0845
▁cycles	-10.0847
▁classify	-10.0847
▁vertical	-10.085
▁{	-10.085
▁Sitter	-10.0852
▁heterogeneous	-10.0854
▁disordered	-10.0859
▁ideas	-10.0862
▁own	-10.0864
10^{	-10.0868
-1)	-10.0871
▁analog	-10.0873
▁separated	-10.0877
rr	-10.0882
AP	-10.0885
▁transit	-10.0885
▁extent	-10.0887
▁Method	-10.0888
▁conducted	-10.0891
▁trivial	-10.0893
▁attractive	-10.0893
▁overcome	-10.0895
DS	-10.0897
doped	-10.0897
▁adapt	-10.0905
▁sky	-10.0911
▁Sun	-10.0911
RT	-10.0914
▁explored	-10.0916
▁limitations	-10.0918
▁argument	-10.0927
Ma	-10.093
▁essentially	-10.0932
▁switching	-10.0933
▁Phys	-10.0935
▁Gamma	-10.094
critical	-10.0941
SL	-10.0949
21	-10.0955
component	-10.0958
▁advantages	-10.0966
▁linearly	-10.0966
▁bursts	-10.0977
▁examined	-10.0977
33	-10.0978
▁envelope	-10.0978
▁display	-10.0982
▁twisted	-10.0983
▁trajectory	-10.0983
▁inclusion	-10.0988
if	-10.0989
1)	-10.0991
▁exciton	-10.0992
▁differ	-10.0996
▁select	-10.0996
▁who	-10.0999
▁easy	-10.1004
▁opposite	-10.1007
▁Way	-10.1007
^+$	-10.1008
▁GRB	-10.1009
▁Three	-10.101
▁air	-10.101
che	-10.1013
▁exponents	-10.1019
RE	-10.1019
▁formulated	-10.1026
▁HD	-10.1027
▁Machine	-10.1029
95	-10.1029
▁merger	-10.1029
▁inversion	-10.1031
▁clearly	-10.1036
▁silicon	-10.1038
▁diffuse	-10.1038
rad	-10.1038
^3$	-10.1042
02	-10.1049
▁Per	-10.1055
▁SP	-10.1057
▁nontrivial	-10.1058
2$	-10.106
▁performing	-10.1061
▁cyclic	-10.1062
▁directed	-10.1063
▁genus	-10.1068
kov	-10.1069
▁brain	-10.107
▁affected	-10.1073
phenomenological	-10.1073
▁combine	-10.1075
▁interplay	-10.1076
▁4-	-10.1083
2,	-10.1084
▁trapped	-10.1086
▁drive	-10.1088
tain	-10.1089
▁dot	-10.1094
▁marginal	-10.1097
oid	-10.1103
▁derivatives	-10.1103
▁angles	-10.1105
▁substantial	-10.1111
▁tension	-10.1114
MP	-10.1117
Cu	-10.1117
dy	-10.1124
varepsilon	-10.1125
down	-10.1128
tch	-10.113
▁Th	-10.1133
▁uniformly	-10.1137
ious	-10.1143
▁giving	-10.1144
▁motivated	-10.1144
partial	-10.1145
▁facilitate	-10.1157
▁validity	-10.1162
model	-10.1171
▁Study	-10.1175
▁Ia	-10.1184
▁mono	-10.1185
▁formulate	-10.1195
▁Information	-10.1196
▁improvements	-10.1211
▁art	-10.1211
cl	-10.1213
▁oxygen	-10.1222
eff	-10.1226
▁periods	-10.1232
▁Optical	-10.1233
▁pass	-10.1237
▁qualitative	-10.1238
▁agree	-10.124
▁faint	-10.1244
ture	-10.1246
=4	-10.1254
trans	-10.1256
RG	-10.1258
hy	-10.1258
IT	-10.1265
▁surrounding	-10.1266
theoretic	-10.1268
Ca	-10.1269
▁growing	-10.1271
▁reducing	-10.1275
▁failure	-10.1277
▁changing	-10.1277
▁balance	-10.1282
mann	-10.1284
▁insight	-10.1292
▁im	-10.1293
▁suppression	-10.1308
▁fermionic	-10.1309
▁simultaneous	-10.1315
▁iron	-10.1321
▁Bell	-10.1323
▁fluxes	-10.133
factor	-10.1338
▁positions	-10.1343
▁Me	-10.1343
▁Majorana	-10.1344
▁Milky	-10.1345
▁confinement	-10.1345
▁outflow	-10.1353
▁tuning	-10.1355
▁21	-10.1361
-19	-10.1366
sub	-10.1368
electric	-10.1372
▁cores	-10.1372
▁1/	-10.1374
▁Fr	-10.1377
channel	-10.1379
specific	-10.1383
▁introduction	-10.139
▁away	-10.139
ker	-10.1392
ped	-10.1394
core	-10.1399
▁peaks	-10.1403
shell	-10.1408
▁treat	-10.141
▁computationally	-10.1411
▁Self	-10.1414
▁Dirichlet	-10.1416
▁Im	-10.1422
▁coverage	-10.1427
35	-10.1427
▁predicts	-10.1428
lation	-10.143
▁fall	-10.1442
▁annihilation	-10.1448
4$	-10.145
▁estimating	-10.1452
▁big	-10.1453
▁exponentially	-10.1456
▁service	-10.1478
▁damping	-10.1479
▁conversion	-10.148
▁Through	-10.1481
▁Mg	-10.1485
▁had	-10.1487
▁torsion	-10.149
DF	-10.1493
▁outside	-10.1496
▁improving	-10.1497
▁Cha	-10.15
cur	-10.1501
▁binding	-10.1503
▁life	-10.1508
class	-10.1515
iso	-10.1516
▁coarse	-10.1517
defined	-10.1518
mi	-10.1518
▁flexible	-10.1519
▁Mi	-10.1522
▁primordial	-10.1522
24	-10.1523
▁suppressed	-10.1524
22	-10.1526
vo	-10.1528
MR	-10.1533
ME	-10.1537
ari	-10.1543
rank	-10.1546
03	-10.1554
bin	-10.1556
▁desired	-10.1562
▁offers	-10.1562
exp	-10.1565
▁constructing	-10.1569
▁computations	-10.157
▁technologies	-10.1576
▁followed	-10.1581
▁extending	-10.1592
inter	-10.1592
▁subgroup	-10.1594
▁needs	-10.1596
▁estimators	-10.1597
▁prevent	-10.1598
75	-10.1599
dynamic	-10.16
▁burst	-10.1608
▁homo	-10.1609
proton	-10.161
▁soliton	-10.1615
▁forming	-10.1616
▁systematically	-10.1618
90	-10.1621
PA	-10.1622
=0$	-10.1622
res	-10.1624
▁box	-10.1625
net	-10.1636
▁successful	-10.1639
▁window	-10.1642
cell	-10.1647
▁modeled	-10.1648
36	-10.1664
▁nu	-10.167
ich	-10.1673
va	-10.1674
▁impurity	-10.1675
23	-10.168
▁neuro	-10.1685
▁supergravity	-10.1688
▁sensors	-10.1692
ulated	-10.1693
▁instrument	-10.1695
que	-10.1695
▁optimize	-10.1695
ze	-10.1695
▁morphology	-10.1703
▁rays	-10.1714
▁ball	-10.1714
▁robot	-10.1715
▁Despite	-10.1722
adic	-10.1722
▁ranging	-10.1723
ind	-10.173
▁favor	-10.1731
^1	-10.1732
shot	-10.1732
RA	-10.1734
▁analyse	-10.1734
▁deviations	-10.174
leading	-10.1742
▁Com	-10.1744
▁bosonic	-10.1744
▁scene	-10.1745
▁receiver	-10.1746
▁validate	-10.1746
duct	-10.1748
▁gene	-10.1755
▁Mar	-10.1756
fit	-10.1757
▁match	-10.1762
▁parabolic	-10.1768
cept	-10.1769
▁Cr	-10.177
▁bundles	-10.177
ram	-10.1779
96	-10.1781
▁specifically	-10.1783
anti	-10.1784
▁mobility	-10.1786
▁Finite	-10.1789
▁simply	-10.1793
size	-10.18
MM	-10.1803
theory	-10.181
▁uniqueness	-10.1816
▁shifts	-10.182
▁quasars	-10.1825
▁beams	-10.1825
▁trade	-10.1826
▁III	-10.1827
ust	-10.1843
▁supernovae	-10.1845
▁motions	-10.1846
▁epoch	-10.1848
▁dynamically	-10.185
▁leverage	-10.185
▁geometries	-10.1856
0)	-10.1857
noise	-10.1859
▁membrane	-10.186
}$)	-10.1866
▁axial	-10.1867
IN	-10.1868
▁susceptibility	-10.187
stable	-10.1884
▁regarding	-10.189
▁controller	-10.189
▁thick	-10.1891
▁simulate	-10.1895
ency	-10.1897
yr	-10.1899
BC	-10.1901
▁Evolution	-10.1902
▁old	-10.1919
▁competitive	-10.192
manifolds	-10.1928
ination	-10.1933
70	-10.1936
▁o	-10.194
▁cool	-10.1943
▁17	-10.1944
▁mu	-10.195
▁posterior	-10.1955
▁micron	-10.1956
BS	-10.1962
▁management	-10.1966
▁digital	-10.1969
▁maximize	-10.1974
▁programs	-10.1974
\%$	-10.1976
▁visible	-10.1978
▁return	-10.1979
▁inelastic	-10.198
▁kinematic	-10.198
matrix	-10.1983
tag	-10.1983
▁bandwidth	-10.1987
angle	-10.1991
max	-10.1992
▁stream	-10.1992
87	-10.1998
ash	-10.2002
▁Generalized	-10.2002
▁holographic	-10.2003
▁abstract	-10.2006
▁counting	-10.201
▁j	-10.201
▁substrate	-10.2011
▁shapes	-10.2011
▁2$	-10.2012
▁technical	-10.2013
Li	-10.2014
29	-10.2017
▁wavelengths	-10.2021
\%	-10.2023
▁room	-10.2023
▁automatic	-10.2024
97	-10.2025
▁Optimal	-10.2029
▁geometrical	-10.203
▁extinction	-10.2036
▁independently	-10.2038
▁Real	-10.2038
▁apparent	-10.2043
44	-10.205
▁attempt	-10.2051
▁imp	-10.2056
://	-10.2056
▁inferred	-10.206
▁mission	-10.2067
▁optimized	-10.2069
▁emerging	-10.207
MT	-10.207
dent	-10.2072
wavelength	-10.2079
▁spins	-10.2084
step	-10.2086
▁focusing	-10.2091
▁diverse	-10.2092
▁crossing	-10.2094
▁noncommutative	-10.2096
▁labels	-10.2098
▁detecting	-10.2099
bu	-10.2105
▁let	-10.2118
-10	-10.2127
cast	-10.2135
▁identifying	-10.2136
▁operating	-10.2149
Ga	-10.2152
▁exp	-10.2157
grad	-10.2157
▁situations	-10.2158
▁quotient	-10.2159
▁triple	-10.2161
▁inherent	-10.2165
nes	-10.2167
▁vortices	-10.2167
▁embeddings	-10.2171
▁subspace	-10.2181
similar	-10.2182
/2	-10.2184
vol	-10.2186
▁count	-10.2197
vent	-10.2198
▁duration	-10.2203
▁additive	-10.2205
▁Sch	-10.2208
▁interior	-10.221
▁maintain	-10.2211
▁Au	-10.2218
▁generators	-10.2226
unt	-10.223
▁Kerr	-10.2231
ix	-10.2232
▁charges	-10.2236
▁imply	-10.2238
▁wire	-10.2241
▁convert	-10.2242
▁predictive	-10.2242
▁diagonal	-10.2244
coll	-10.2247
▁quant	-10.2249
LC	-10.2255
▁thermodynamics	-10.2259
▁Wilson	-10.2267
IM	-10.2275
ising	-10.2276
code	-10.2277
har	-10.2278
=3	-10.228
▁units	-10.2285
Mo	-10.2285
eck	-10.2287
mit	-10.2295
lt	-10.2296
▁admits	-10.2307
▁suffer	-10.2309
▁substantially	-10.2316
yl	-10.2331
▁perpendicular	-10.2331
▁significance	-10.2332
▁$(\	-10.2337
▁decreasing	-10.2346
den	-10.2349
Phi	-10.235
▁vision	-10.2352
▁crossover	-10.2354
▁pc	-10.2359
▁net	-10.236
mic	-10.2361
mb	-10.2362
ection	-10.2366
▁former	-10.2369
▁solver	-10.2377
▁Maxwell	-10.2379
▁outperform	-10.2382
correlation	-10.2383
▁developing	-10.2386
lating	-10.2386
AL	-10.2386
BA	-10.2387
▁Physics	-10.2389
▁operate	-10.2394
▁emergence	-10.2396
▁Distribution	-10.24
▁utility	-10.2401
▁heuristic	-10.2403
▁solitons	-10.2404
ini	-10.2405
ense	-10.2409
▁cascade	-10.2409
▁languages	-10.2409
▁tend	-10.241
▁necessarily	-10.2414
▁planning	-10.2416
▁Raman	-10.2422
▁strings	-10.2423
▁globular	-10.2423
vert	-10.243
▁semigroup	-10.2431
▁Stochastic	-10.2442
48	-10.2453
▁molecule	-10.2455
▁share	-10.2459
▁allocation	-10.2459
cor	-10.246
▁Single	-10.2461
tive	-10.2462
▁employing	-10.2462
39	-10.2473
rim	-10.2485
▁Micro	-10.2486
ition	-10.2488
▁Ultra	-10.249
function	-10.2495
▁capabilities	-10.2504
▁determinant	-10.2516
▁Galaxies	-10.2518
source	-10.252
▁nearest	-10.2521
▁State	-10.2523
▁circle	-10.2524
ahler	-10.2526
▁25	-10.2528
▁Radio	-10.2528
▁Col	-10.2529
▁instances	-10.2538
▁Experiments	-10.254
▁car	-10.2548
6$	-10.255
optimal	-10.2551
BE	-10.2552
▁resistance	-10.2555
ken	-10.2556
tilde	-10.2557
related	-10.2558
=1$	-10.2565
▁NP	-10.2569
▁reasonable	-10.257
site	-10.2571
▁recovery	-10.2586
▁singlet	-10.2586
GP	-10.2589
aging	-10.2591
Ne	-10.2592
▁blocks	-10.2593
vel	-10.26
ID	-10.2605
▁holomorphic	-10.2606
cc	-10.2612
og	-10.2614
▁fail	-10.2615
▁finitely	-10.2616
_{2	-10.262
aw	-10.2621
▁Simulation	-10.2629
▁Boltzmann	-10.2631
mark	-10.2634
▁denote	-10.2649
ators	-10.265
▁overlap	-10.2652
▁equi	-10.2653
▁geo	-10.2663
ature	-10.2665
▁semiconductor	-10.2666
▁Light	-10.2668
board	-10.267
▁SL	-10.2672
▁targets	-10.2673
▁variant	-10.2673
▁claim	-10.2677
▁Comp	-10.2685
LP	-10.2685
str	-10.2687
ade	-10.2687
▁convolution	-10.2688
▁quasiparticle	-10.2692
▁resonator	-10.2707
▁Particle	-10.2708
▁conduct	-10.2714
▁comment	-10.2721
▁illustrated	-10.2721
▁acting	-10.2724
sort	-10.2729
▁covariant	-10.2729
▁progenitor	-10.273
variate	-10.2733
37	-10.2735
▁Neutrino	-10.2742
▁proofs	-10.2743
▁originate	-10.2744
3$	-10.2746
▁connectivity	-10.2746
▁Strong	-10.2756
▁carrier	-10.2759
ML	-10.2761
▁reconstruct	-10.2761
active	-10.2766
ult	-10.2768
▁protein	-10.2768
lier	-10.2772
arm	-10.2772
▁despite	-10.2779
pr	-10.278
▁energetic	-10.2782
TS	-10.2784
▁waveguide	-10.2785
▁obtaining	-10.2785
berg	-10.2787
▁Effect	-10.2787
SN	-10.2793
▁stack	-10.2793
ather	-10.28
super	-10.2804
▁treated	-10.2809
ometry	-10.281
▁halos	-10.2815
▁exotic	-10.2824
▁Cosmic	-10.2829
RI	-10.2834
▁200	-10.2837
▁Sc	-10.2838
acc	-10.284
▁interact	-10.2849
ik	-10.2853
▁remarkable	-10.2853
iii	-10.2853
St	-10.2854
▁Gr	-10.2856
▁displacement	-10.2859
▁peculiar	-10.287
prime	-10.287
}$-	-10.2871
▁majority	-10.2871
▁behaviors	-10.2872
▁Hubbard	-10.2878
vision	-10.2882
▁1)	-10.2883
▁Compton	-10.2885
▁seems	-10.289
harmonic	-10.2892
▁relationships	-10.2892
ets	-10.2904
▁organ	-10.2905
color	-10.2906
brane	-10.2906
55	-10.2909
ments	-10.291
▁Problem	-10.2911
pa	-10.2916
▁arithmetic	-10.2919
99	-10.2919
▁generator	-10.2923
uniform	-10.2925
▁generates	-10.2926
▁kinematics	-10.2927
hard	-10.2927
▁microscopy	-10.2927
▁why	-10.2933
▁carry	-10.2942
▁And	-10.2946
▁para	-10.2948
product	-10.295
unc	-10.2957
▁couple	-10.2958
erg	-10.2959
▁Hopf	-10.2968
▁members	-10.2976
}/	-10.2976
5$	-10.2977
▁observer	-10.2978
perturbative	-10.2979
domain	-10.2992
big	-10.2993
▁proven	-10.2995
▁counterpart	-10.2996
▁ray	-10.2997
▁Their	-10.2999
MI	-10.3008
▁Array	-10.3009
▁boost	-10.3013
▁1.5	-10.302
▁versus	-10.3025
▁inputs	-10.3026
▁generalizes	-10.3032
-20	-10.3033
algebras	-10.3043
▁his	-10.305
▁diversity	-10.3057
▁Hole	-10.3062
▁manifest	-10.3065
▁indeed	-10.3066
3,	-10.3067
▁onset	-10.3067
▁moderate	-10.307
az	-10.3071
▁Current	-10.3072
ometric	-10.3073
▁scatter	-10.3075
▁Ka	-10.3078
▁status	-10.3084
cycle	-10.3085
▁24	-10.3089
▁subsequent	-10.309
▁optically	-10.3092
▁resolve	-10.3092
▁accelerated	-10.3097
▁dissipative	-10.3101
▁frames	-10.3102
▁relevance	-10.3102
efficient	-10.3107
▁mostly	-10.3109
▁web	-10.3109
los	-10.3119
▁Laplacian	-10.3122
▁bring	-10.3123
▁centre	-10.3129
▁axion	-10.3133
▁circuits	-10.3143
▁explosion	-10.3144
▁possess	-10.3144
jet	-10.3148
▁Bound	-10.3155
▁representing	-10.3158
ai	-10.3159
▁shared	-10.3161
▁guarantees	-10.3167
▁topic	-10.3169
▁magnet	-10.3171
▁friction	-10.3176
qubit	-10.3177
oci	-10.3179
wi	-10.3181
▁deformations	-10.3189
▁comm	-10.319
38	-10.3191
▁people	-10.3201
▁locations	-10.3201
▁induce	-10.3208
▁overview	-10.3215
group	-10.3217
CNN	-10.322
▁cellular	-10.3225
▁gradients	-10.3232
▁(\	-10.3239
▁complementary	-10.3243
▁rigid	-10.3245
▁trigger	-10.3253
2}$	-10.3254
▁Observatory	-10.3254
▁creation	-10.3255
+/-	-10.3256
quad	-10.3257
▁date	-10.3259
oper	-10.3263
▁preliminary	-10.3264
CR	-10.3267
nucleon	-10.3271
▁Sa	-10.3271
▁Direct	-10.3274
▁interfaces	-10.3275
▁CR	-10.3282
▁Motivated	-10.3284
▁involve	-10.3285
▁written	-10.3291
▁optics	-10.3294
CI	-10.3297
row	-10.3306
▁filling	-10.3306
▁quasar	-10.331
32	-10.331
▁quantity	-10.3314
▁bottom	-10.3315
▁demonstrates	-10.3316
▁instabilities	-10.3317
▁unusual	-10.3318
27	-10.3318
▁discover	-10.3321
▁Within	-10.3323
▁strictly	-10.3329
rating	-10.3335
▁Multiple	-10.3336
▁autonomous	-10.3349
▁Josephson	-10.335
▁span	-10.3351
0.4	-10.3352
▁counterparts	-10.3353
▁focused	-10.3354
▁Banach	-10.3355
45	-10.3357
▁implicit	-10.3358
65	-10.3358
▁Algorithm	-10.3361
▁bulge	-10.3362
▁Dynamic	-10.3364
polar	-10.3372
old	-10.3374
▁Cl	-10.3374
▁capability	-10.3379
▁exploration	-10.3379
▁integers	-10.3383
▁decoherence	-10.3383
▁indices	-10.3383
▁largely	-10.3389
lip	-10.339
▁grain	-10.339
▁guarantee	-10.339
▁Near	-10.3391
3)	-10.3392
ane	-10.3393
▁catalog	-10.3394
▁Kondo	-10.3399
▁consumption	-10.3408
▁actual	-10.3411
▁Kepler	-10.3412
algebra	-10.3414
AA	-10.3416
CM	-10.3419
}_{\	-10.3427
▁Pr	-10.3428
▁Interaction	-10.3435
resolved	-10.3437
ute	-10.3437
mpl	-10.3446
▁qualitatively	-10.3452
power	-10.3454
▁achieving	-10.3454
▁classifier	-10.3458
▁IC	-10.3459
▁services	-10.3459
▁flare	-10.346
▁universality	-10.346
▁arrays	-10.346
▁custom	-10.3464
▁Electron	-10.3468
▁verification	-10.3471
iation	-10.3472
▁tr	-10.3473
▁DNA	-10.3475
▁bilayer	-10.3477
▁ab	-10.3478
▁60	-10.3478
GA	-10.3485
▁projected	-10.3489
hol	-10.349
▁plus	-10.3494
▁reinforcement	-10.3496
▁remaining	-10.3496
▁distortion	-10.3497
▁outburst	-10.3506
air	-10.3507
▁encoding	-10.3509
▁ergodic	-10.3509
▁constitute	-10.3513
▁consideration	-10.3513
▁Fast	-10.3513
▁adopted	-10.3515
▁minor	-10.3518
MF	-10.352
momentum	-10.3521
▁representative	-10.3523
▁simplified	-10.3526
▁monopole	-10.3528
▁versions	-10.3528
▁homotopy	-10.3532
DR	-10.3535
align	-10.3538
▁stages	-10.354
▁introduces	-10.3541
47	-10.3542
▁Ly	-10.3542
▁junction	-10.3545
▁helium	-10.3551
▁monolayer	-10.3552
43	-10.3552
▁condensation	-10.3553
▁ice	-10.3557
46	-10.3561
reg	-10.3563
▁Methods	-10.3563
▁trend	-10.3563
ost	-10.3565
▁unsupervised	-10.3566
▁calculus	-10.3567
▁fits	-10.3567
▁0.4	-10.3568
process	-10.3568
▁tau	-10.3568
▁ST	-10.3576
▁Ti	-10.3576
0,	-10.3577
▁Lattice	-10.3577
▁label	-10.3588
▁supervised	-10.359
▁researchers	-10.3591
▁structured	-10.3592
edge	-10.3593
▁$3	-10.3595
ifies	-10.3597
▁se	-10.3599
dot	-10.3605
▁sums	-10.3606
subset	-10.3608
cess	-10.3608
IP	-10.3609
side	-10.3613
▁Applications	-10.3615
▁feasible	-10.3617
▁initially	-10.3621
ka	-10.3624
ext	-10.3627
▁mutual	-10.363
morphism	-10.3635
▁Similar	-10.3641
▁GW	-10.3643
▁fractal	-10.3643
lying	-10.3644
▁outline	-10.3647
ars	-10.3648
▁AU	-10.365
▁grains	-10.3652
▁express	-10.3655
▁others	-10.3655
▁thermo	-10.3657
▁million	-10.3657
▁geodesic	-10.3659
case	-10.3664
▁mm	-10.3669
▁sentence	-10.3671
▁retrieval	-10.368
▁Ho	-10.3689
▁medical	-10.3692
▁health	-10.3694
put	-10.3694
58	-10.3696
▁exploiting	-10.3704
▁Optimization	-10.3713
▁strange	-10.3716
▁elliptical	-10.3719
▁converges	-10.3727
▁realize	-10.3727
▁arbitrarily	-10.3729
▁timing	-10.373
▁screening	-10.3735
trained	-10.3741
▁pulsars	-10.3747
icity	-10.3747
▁ten	-10.3752
▁admit	-10.3753
▁converge	-10.3753
branes	-10.3758
ave	-10.3767
▁Efficient	-10.3768
▁Po	-10.3768
▁collaboration	-10.3769
▁update	-10.3771
▁switch	-10.3771
^{+	-10.3772
▁compounds	-10.3776
▁document	-10.378
CT	-10.3782
$_	-10.3782
▁synchrotron	-10.3783
▁van	-10.3784
▁supports	-10.3784
simeq	-10.3785
box	-10.3787
uth	-10.3788
lum	-10.3789
▁automated	-10.3789
arch	-10.3794
▁percolation	-10.3794
▁preserving	-10.3795
34	-10.3796
bol	-10.3797
▁complicated	-10.3803
56	-10.3804
▁charm	-10.3807
▁behave	-10.3811
▁SDSS	-10.3811
▁causes	-10.3816
▁Over	-10.3817
▁prototype	-10.3819
regular	-10.382
▁vary	-10.3823
GM	-10.3823
▁Spectral	-10.3828
▁expert	-10.3828
NO	-10.3828
▁Neumann	-10.3833
▁dots	-10.3841
NE	-10.3845
▁mergers	-10.3854
▁Properties	-10.3857
▁decoding	-10.3867
CE	-10.387
▁queries	-10.387
TE	-10.3872
▁generative	-10.3873
Dimensional	-10.3878
compact	-10.3882
▁multivariate	-10.3883
▁Power	-10.3885
ley	-10.3885
▁requirement	-10.3885
OC	-10.3886
▁intervals	-10.3888
▁Semi	-10.389
▁Topological	-10.3908
▁Chandra	-10.3913
▁compound	-10.3914
▁complexes	-10.3915
▁bipartite	-10.3919
PP	-10.3925
▁secure	-10.3926
▁functor	-10.3927
▁Ta	-10.393
▁Hence	-10.3931
▁Tr	-10.3932
▁Effects	-10.3932
▁rigorous	-10.3935
▁Object	-10.3936
▁policies	-10.3937
stein	-10.3942
▁erg	-10.3949
▁corona	-10.395
▁Surface	-10.3951
RL	-10.3956
▁lift	-10.396
▁luminosities	-10.3964
▁greatly	-10.3972
28	-10.3974
▁Long	-10.3977
▁accessible	-10.3979
\}$	-10.398
▁combines	-10.398
▁engine	-10.3982
▁route	-10.3983
▁Code	-10.3988
26	-10.3992
3}$	-10.3994
▁AI	-10.3999
▁Te	-10.4003
charge	-10.4008
▁competition	-10.4009
▁effort	-10.401
▁tube	-10.4014
▁saturation	-10.4017
▁strengths	-10.4018
▁move	-10.4019
physical	-10.4023
III	-10.4026
▁fragmentation	-10.4026
▁package	-10.4027
▁Collider	-10.4028
▁fault	-10.4028
▁bit	-10.4028
▁bifurcation	-10.4034
hen	-10.4043
▁So	-10.405
▁me	-10.4053
etic	-10.4054
▁occurrence	-10.4054
▁defining	-10.406
▁adaptation	-10.4064
▁Next	-10.4067
sol	-10.4071
▁Vi	-10.4076
▁producing	-10.4079
▁luminous	-10.408
▁plan	-10.4081
▁adding	-10.4087
▁attain	-10.4092
▁conduction	-10.4093
▁valence	-10.4096
▁MA	-10.4097
▁oxide	-10.4097
ook	-10.4098
▁emphasis	-10.4105
tre	-10.4108
▁Gravity	-10.4111
▁summarize	-10.4112
^{-2}	-10.4113
▁Design	-10.4116
▁quantized	-10.4116
▁Among	-10.4117
avi	-10.4117
▁lengths	-10.4117
eng	-10.4123
current	-10.4123
ock	-10.4132
▁Each	-10.4133
iss	-10.4134
DC	-10.4141
▁steep	-10.415
▁Comparison	-10.4155
▁benefits	-10.4156
▁extremal	-10.4156
▁increasingly	-10.4159
▁sheet	-10.4159
dual	-10.4161
▁sea	-10.4162
▁randomly	-10.4165
▁Estimation	-10.4167
▁Open	-10.417
▁strip	-10.4175
ble	-10.4175
▁propagator	-10.4176
8$	-10.4176
^4	-10.4182
▁multiplicity	-10.4188
▁calculating	-10.4189
▁superior	-10.4189
▁identities	-10.4191
▁assessment	-10.4192
51	-10.4193
85	-10.4193
MOS	-10.4194
Pb	-10.4195
BM	-10.4196
▁app	-10.4204
▁applicability	-10.4207
▁Transition	-10.4208
▁adjust	-10.4208
ics	-10.421
dia	-10.4222
▁torque	-10.4225
▁expanding	-10.4226
▁reliability	-10.4227
▁newly	-10.4228
▁advances	-10.4231
▁Mn	-10.4234
▁auto	-10.4235
ique	-10.4237
RO	-10.4238
lattice	-10.424
500	-10.4241
▁pump	-10.4244
▁filtering	-10.4248
▁anomalies	-10.4253
ps	-10.4254
▁diagnostic	-10.4255
oids	-10.4261
Ni	-10.4261
▁Internet	-10.4265
▁finally	-10.4278
▁alter	-10.4278
▁year	-10.4287
▁behind	-10.4287
▁losses	-10.4289
clus	-10.429
▁option	-10.4291
sch	-10.4292
▁modify	-10.4296
cho	-10.4298
ung	-10.4303
▁advanced	-10.4306
day	-10.4312
▁minimization	-10.4313
LI	-10.4321
sequence	-10.4326
▁texture	-10.4331
▁properly	-10.4335
finite	-10.4336
▁Cluster	-10.4339
▁Bar	-10.434
▁droplet	-10.4344
▁physically	-10.4345
sensitive	-10.4349
▁triplet	-10.4352
▁Photo	-10.4352
▁activation	-10.4354
uk	-10.4357
elastic	-10.4357
fl	-10.4362
itch	-10.4363
lib	-10.4369
cr	-10.4377
▁resistivity	-10.4378
load	-10.4381
▁spot	-10.4381
▁doped	-10.4387
▁How	-10.4387
verse	-10.4394
ifying	-10.4397
▁observing	-10.4397
▁individuals	-10.4399
▁discretization	-10.44
▁viscous	-10.44
▁transmit	-10.4404
▁fix	-10.4405
▁induces	-10.4414
▁enabling	-10.4417
view	-10.4417
▁Limit	-10.4428
rea	-10.4429
link	-10.443
oli	-10.4431
▁Point	-10.4441
▁later	-10.4443
▁aggregate	-10.4446
\'{	-10.4447
▁comes	-10.4448
▁propagating	-10.4449
▁su	-10.4455
▁isomorphic	-10.4455
Au	-10.446
tropic	-10.4461
▁Class	-10.4463
▁ingredient	-10.4464
▁incident	-10.4479
▁triangle	-10.4479
▁Nonlinear	-10.4482
▁superposition	-10.4483
▁synchronization	-10.4485
Gaussian	-10.4488
▁interferometer	-10.4498
▁SA	-10.4498
▁except	-10.4498
pair	-10.4499
▁vicinity	-10.4499
cul	-10.4502
▁addressed	-10.4515
shift	-10.453
▁Besides	-10.4534
▁collider	-10.4535
▁plate	-10.4535
▁degeneracy	-10.4537
▁shocks	-10.4542
▁junctions	-10.4542
▁gaps	-10.4556
▁variants	-10.4556
▁closure	-10.4557
▁sc	-10.4557
▁curved	-10.4559
▁indirect	-10.456
high	-10.4563
quality	-10.4564
position	-10.4566
▁procedures	-10.4567
▁economic	-10.4568
ulator	-10.4575
▁Observations	-10.4579
ists	-10.4586
+2	-10.4587
GL	-10.4588
Stokes	-10.4588
PM	-10.4592
▁permit	-10.4593
lesssim	-10.4593
▁nonzero	-10.4601
▁inspired	-10.4606
▁alone	-10.4613
ek	-10.4615
▁infinitely	-10.4618
Simons	-10.4624
▁predicting	-10.4627
▁fractions	-10.4637
▁walls	-10.4639
rec	-10.464
▁recommendation	-10.4641
▁connect	-10.4644
▁kinds	-10.4645
▁vs	-10.4645
▁reasoning	-10.4646
▁requiring	-10.4656
▁subgroups	-10.466
▁score	-10.4661
49	-10.467
▁Unlike	-10.4671
pre	-10.4672
▁2)	-10.4673
▁performs	-10.4673
pole	-10.4675
ement	-10.4676
▁meet	-10.4678
▁Modeling	-10.4682
▁momenta	-10.4688
▁Previous	-10.4689
▁considerable	-10.4699
▁solvable	-10.4701
1}$	-10.4705
square	-10.4707
▁triangular	-10.4708
▁semiclassical	-10.4714
0.7	-10.4714
▁manipulation	-10.4715
ris	-10.4718
▁applies	-10.472
▁pipeline	-10.4721
▁aspect	-10.4722
ey	-10.4722
TI	-10.4724
EL	-10.4725
▁quantitatively	-10.4729
▁students	-10.4733
prop	-10.4737
▁Dynamical	-10.4737
▁sharing	-10.4741
0.6	-10.4742
\"{	-10.4742
▁MC	-10.4746
▁Classification	-10.475
▁Lett	-10.4752
▁attributed	-10.4753
hedral	-10.4754
▁iteration	-10.4756
▁added	-10.4757
▁BH	-10.4759
▁release	-10.4761
AD	-10.4765
▁developments	-10.4769
▁CH	-10.477
nova	-10.4771
ati	-10.4779
▁record	-10.4785
▁Robust	-10.4791
▁execution	-10.4791
manifold	-10.4798
▁conclusion	-10.4799
▁clinical	-10.4804
▁%	-10.4805
64	-10.4807
▁environmental	-10.4814
▁add	-10.4817
▁server	-10.4817
",	-10.482
bot	-10.4822
▁Assuming	-10.4824
hop	-10.4829
▁bin	-10.4835
The	-10.4836
inal	-10.4838
TA	-10.4839
▁reason	-10.484
▁scalable	-10.484
▁negligible	-10.4842
▁incorporate	-10.4843
▁bases	-10.4848
dic	-10.4849
ove	-10.4855
▁viewed	-10.4856
▁skew	-10.4859
▁0.8	-10.4862
value	-10.4864
▁nebula	-10.4866
▁course	-10.4868
▁PDE	-10.4872
Ray	-10.4875
▁Ver	-10.4875
▁costs	-10.4878
▁proposes	-10.4879
▁laboratory	-10.4887
▁relay	-10.489
▁day	-10.4893
▁nor	-10.4894
▁suppress	-10.4895
▁tends	-10.4895
▁cap	-10.4897
▁working	-10.4899
MO	-10.4904
▁Density	-10.491
PO	-10.4912
▁kernels	-10.4912
▁distant	-10.4915
▁discrepancy	-10.4916
rays	-10.4918
count	-10.492
▁$0	-10.4923
_{1	-10.4923
▁movement	-10.4924
ular	-10.4926
▁Mott	-10.4927
▁Convolutional	-10.4931
which	-10.4932
▁subsets	-10.4943
▁Gravitational	-10.4946
▁ambient	-10.4948
word	-10.4948
▁feasibility	-10.495
▁Schwarzschild	-10.4951
sl	-10.4952
▁mild	-10.4953
▁jointly	-10.4954
▁Lyapunov	-10.4958
▁verified	-10.496
▁restrict	-10.4962
▁table	-10.4962
▁semantics	-10.4963
▁roughly	-10.4964
▁recurrent	-10.4967
▁Different	-10.4968
▁nonlinearity	-10.4969
▁until	-10.497
fall	-10.4974
▁false	-10.4974
▁filters	-10.4979
▁telescopes	-10.4984
1.5	-10.4985
atom	-10.4988
cut	-10.4988
magnet	-10.499
▁emerge	-10.4991
▁thought	-10.4994
phonon	-10.4997
▁knot	-10.5
▁Effective	-10.5006
duction	-10.5008
▁contract	-10.5011
▁0.6	-10.5012
▁spacetimes	-10.5013
▁injection	-10.5019
led	-10.5026
▁GC	-10.5029
▁walks	-10.5031
▁isomorphism	-10.5033
▁ca	-10.5033
▁Matrix	-10.5033
▁Ce	-10.5034
▁affects	-10.5035
sample	-10.5036
▁Representation	-10.5041
▁bath	-10.5042
▁reward	-10.5046
▁Su	-10.5047
▁interpolation	-10.5048
▁warm	-10.5049
ham	-10.5049
▁y	-10.505
ld	-10.5055
back	-10.5055
pot	-10.5056
SF	-10.5057
▁granular	-10.5071
00	-10.5071
▁benefit	-10.5078
Sr	-10.5079
▁guide	-10.5081
commutative	-10.5085
▁Ricci	-10.5085
rel	-10.5091
^{-1}$	-10.5091
▁horizontal	-10.5092
▁neighborhood	-10.5095
67	-10.5096
-1}	-10.5102
▁refer	-10.5109
▁Navier	-10.5109
▁satisfied	-10.5118
▁spheres	-10.512
▁oriented	-10.512
▁coronal	-10.5121
▁Casimir	-10.5124
lar	-10.5127
94	-10.5128
aware	-10.5128
▁Wi	-10.5133
LT	-10.5134
▁utilize	-10.5134
▁evolving	-10.5136
▁Sr	-10.5137
$_{1	-10.514
▁COVID	-10.5142
▁0.7	-10.5143
▁once	-10.5144
▁emitted	-10.5147
▁know	-10.5153
▁throughout	-10.5153
ever	-10.5154
▁sh	-10.5157
▁exoplanet	-10.516
▁numerous	-10.5163
▁Gyr	-10.5163
mar	-10.5171
▁lies	-10.5178
2\	-10.5181
axis	-10.5187
▁auxiliary	-10.5194
▁fidelity	-10.5196
▁labeled	-10.5196
▁commutative	-10.5198
▁Flow	-10.5199
▁Lo	-10.5204
RC	-10.5204
▁throughput	-10.5211
gue	-10.5215
▁gl	-10.5215
▁instanton	-10.5216
▁Global	-10.522
▁meaning	-10.5224
)$-	-10.5227
La	-10.5227
+1}	-10.5228
▁gases	-10.5231
▁tilt	-10.5234
centric	-10.524
itz	-10.5242
second	-10.5243
ough	-10.5243
complete	-10.5255
▁SUSY	-10.5258
=2$	-10.5267
▁Hadron	-10.5269
▁CT	-10.5271
▁oscillators	-10.5273
ath	-10.5273
supervised	-10.5277
▁Source	-10.528
▁scan	-10.528
tance	-10.5281
▁Minkowski	-10.5281
-4	-10.5281
(2,	-10.5283
7$	-10.5287
▁String	-10.5295
▁considerably	-10.5299
diffusion	-10.5302
▁Because	-10.5302
ori	-10.5304
4}$	-10.531
▁simplest	-10.531
▁bodies	-10.5311
ography	-10.5313
▁filament	-10.5315
▁come	-10.5316
▁obey	-10.5318
▁modifications	-10.5318
▁chaos	-10.5324
▁deformed	-10.5324
▁convection	-10.5325
▁pp	-10.5329
▁evolve	-10.5331
▁round	-10.5332
▁starburst	-10.5333
▁classified	-10.5337
▁contained	-10.5338
▁cur	-10.5345
▁descent	-10.5347
connected	-10.5348
▁(3	-10.535
lay	-10.5351
▁combinations	-10.5354
NC	-10.536
▁Towards	-10.536
▁Its	-10.5365
▁coming	-10.5371
▁governed	-10.5375
▁SNR	-10.5379
▁master	-10.5385
▁CS	-10.5387
otic	-10.5389
var	-10.539
▁graded	-10.5395
CH	-10.5398
Yau	-10.5399
cular	-10.54
Ge	-10.54
▁tackle	-10.5401
turb	-10.5405
▁gates	-10.5407
▁mesh	-10.5408
57	-10.5411
▁condensates	-10.5416
▁clean	-10.5421
▁dimer	-10.5422
▁Application	-10.5422
▁blow	-10.5424
▁States	-10.543
▁Myr	-10.5431
coupling	-10.5431
▁scanning	-10.5432
▁gr	-10.5434
tru	-10.5436
processing	-10.5437
▁spanning	-10.544
▁escape	-10.5444
▁Out	-10.5449
▁adopt	-10.5451
ju	-10.5452
▁Weak	-10.5454
millimeter	-10.5456
GC	-10.5457
ected	-10.5457
▁outcome	-10.5458
ching	-10.5466
are	-10.5468
▁300	-10.548
▁0.9	-10.5481
▁reverse	-10.5485
DI	-10.5489
4)	-10.5493
▁colors	-10.5493
ili	-10.5501
▁Trans	-10.5501
▁conserved	-10.5502
▁Gauss	-10.5506
▁utilizing	-10.5507
▁Quasi	-10.5509
▁la	-10.5509
▁continue	-10.5511
compactification	-10.5512
Newton	-10.5513
0.8	-10.5514
analytic	-10.5515
▁formulae	-10.5516
▁Nano	-10.5519
▁clock	-10.5519
▁Cross	-10.552
cyclic	-10.552
▁ensembles	-10.5521
▁efforts	-10.5525
ship	-10.5534
▁specification	-10.5538
▁Str	-10.5539
▁22	-10.5541
ano	-10.5542
heat	-10.5547
gap	-10.5548
▁named	-10.5554
til	-10.5555
▁expect	-10.5556
▁Gauge	-10.5557
▁received	-10.5562
▁fluids	-10.5568
mechanical	-10.5572
▁spinor	-10.5572
generation	-10.5578
▁actually	-10.5579
▁consistently	-10.5579
▁eight	-10.5581
Based	-10.5581
▁Gra	-10.5591
older	-10.5593
▁determines	-10.5594
▁bridge	-10.5599
▁statistically	-10.5605
▁algorithmic	-10.5605
▁safety	-10.5605
▁Prediction	-10.5608
▁imposed	-10.5609
▁XMM	-10.5611
ya	-10.5613
▁collect	-10.5613
68	-10.5614
cle	-10.5616
▁(~	-10.5616
lab	-10.5623
▁brief	-10.5624
▁SC	-10.5627
1\	-10.5627
ographic	-10.563
▁statement	-10.5633
▁Relation	-10.5636
▁ideals	-10.5637
▁enter	-10.5642
fra	-10.5642
1}	-10.5645
▁proximity	-10.5646
uff	-10.5646
▁weaker	-10.5653
▁proving	-10.5659
ele	-10.567
▁segment	-10.5674
)/	-10.5679
tuning	-10.5679
▁Instead	-10.5682
▁Hyper	-10.5683
▁sur	-10.5684
Sp	-10.5689
▁multiplicative	-10.5692
▁scheduling	-10.5692
▁crystalline	-10.5695
FS	-10.5696
▁Can	-10.5696
▁QED	-10.5698
ij	-10.5698
▁But	-10.5701
▁Pb	-10.5705
▁MI	-10.5705
▁led	-10.5705
▁ultraviolet	-10.5706
▁ionized	-10.5706
ail	-10.571
▁obstacle	-10.5715
▁primitive	-10.5716
aving	-10.5722
▁varies	-10.5729
▁perturbed	-10.573
▁straightforward	-10.573
▁decades	-10.5745
▁Cauchy	-10.5746
▁CA	-10.575
▁widths	-10.5753
4,	-10.5753
Con	-10.5753
▁monitor	-10.5754
2}	-10.5762
▁Lyman	-10.5765
▁landscape	-10.5772
▁passive	-10.5772
▁normalized	-10.5774
arc	-10.5774
stability	-10.5775
istor	-10.5777
atur	-10.5782
▁characterizing	-10.5791
Witten	-10.5796
▁shed	-10.5802
▁cutoff	-10.5806
$_{2}$	-10.5808
▁minimizing	-10.5809
och	-10.5813
ient	-10.5814
We	-10.5816
▁alternating	-10.5817
▁exceptional	-10.582
▁Newton	-10.5828
chain	-10.5834
stat	-10.5834
41	-10.5839
▁accelerator	-10.5843
▁financial	-10.5845
▁knots	-10.5848
Phys	-10.5849
▁constructions	-10.585
GS	-10.585
▁functionals	-10.5851
▁seven	-10.5855
42	-10.5859
▁imaginary	-10.5862
ries	-10.5868
▁outcomes	-10.5869
ire	-10.5871
▁Equations	-10.5875
_1,	-10.5875
ologies	-10.5879
shaped	-10.5896
▁continuously	-10.5899
▁concrete	-10.5899
▁foundation	-10.5901
▁80	-10.5906
}{\	-10.5916
▁attractor	-10.5924
▁constituent	-10.5928
▁incorporating	-10.5928
▁lie	-10.5929
▁Part	-10.5929
ami	-10.5933
▁Order	-10.5939
izer	-10.594
▁Molecular	-10.594
▁reservoir	-10.5945
▁reconstructed	-10.5947
ean	-10.5951
▁reviewed	-10.5952
long	-10.5957
symmetry	-10.5959
ease	-10.596
▁achievable	-10.5962
▁Decay	-10.5965
▁asymmetries	-10.5974
▁Msun	-10.5976
▁smallest	-10.5979
▁encode	-10.598
▁placed	-10.598
▁sparsity	-10.5982
▁conjectured	-10.5985
pol	-10.5987
▁primarily	-10.5989
▁dimensionality	-10.5997
▁Mpc	-10.6001
^0$	-10.6006
▁message	-10.6006
▁trends	-10.601
▁station	-10.601
▁go	-10.6013
▁Ru	-10.6014
▁mask	-10.6014
▁travel	-10.6015
▁HST	-10.6019
▁propagate	-10.6024
ett	-10.6025
".	-10.6031
▁Wigner	-10.6037
script	-10.6039
▁render	-10.6039
▁violating	-10.6041
▁demonstrating	-10.6043
▁activities	-10.6043
▁Charge	-10.6046
▁modulus	-10.6047
▁During	-10.6051
^+\	-10.6052
vec	-10.6054
▁completion	-10.6059
▁publicly	-10.606
$-$	-10.606
▁Formation	-10.6061
▁flares	-10.6063
▁vehicle	-10.6068
▁SNe	-10.6068
▁Gu	-10.6069
▁ML	-10.6072
ential	-10.6074
grained	-10.6079
even	-10.6082
▁expansions	-10.6085
▁Exact	-10.6087
▁remove	-10.6088
▁par	-10.6089
▁Yukawa	-10.6089
▁Quark	-10.6092
▁Hamiltonians	-10.6095
ductive	-10.6107
med	-10.6107
ides	-10.6109
▁recombination	-10.6111
▁polytope	-10.6112
▁LS	-10.6113
▁zeta	-10.6114
▁notions	-10.6114
CFT	-10.6115
▁Even	-10.6121
▁subsystem	-10.6125
▁spacing	-10.6125
▁benchmarks	-10.6125
bre	-10.6128
▁covers	-10.6139
surface	-10.6139
▁exclusive	-10.6144
▁migration	-10.6144
▁probably	-10.6149
system	-10.615
overline	-10.6151
race	-10.6153
mission	-10.6154
▁irregular	-10.6154
▁prominent	-10.6156
▁nonequilibrium	-10.6159
morphic	-10.6162
▁reproduced	-10.6163
center	-10.6164
▁Small	-10.6168
▁genetic	-10.6169
▁separable	-10.6174
▁Ko	-10.6177
^{+}	-10.6179
\,\	-10.6183
▁catalogue	-10.6186
▁grows	-10.6187
▁quenched	-10.6189
uck	-10.6191
▁analysed	-10.6192
ants	-10.6194
ah	-10.6195
bul	-10.6196
▁Project	-10.62
▁replica	-10.6202
▁counts	-10.6206
illi	-10.6208
)}	-10.6208
▁mini	-10.621
▁GPU	-10.621
▁Condition	-10.621
▁permutation	-10.6231
▁Function	-10.6232
▁Measurement	-10.6239
optical	-10.6246
flu	-10.6247
0\	-10.6249
▁designing	-10.625
▁usage	-10.6253
▁recursive	-10.6255
▁expensive	-10.6255
▁designs	-10.6258
▁cylinder	-10.6261
▁Ste	-10.6266
▁vehicles	-10.6272
▁Asymptotic	-10.6272
▁integrate	-10.6274
▁Equation	-10.6278
▁flavour	-10.6284
▁restriction	-10.629
▁str	-10.6297
▁repulsive	-10.63
▁Simulations	-10.63
▁equipped	-10.6301
Mn	-10.6303
atomic	-10.6309
▁70	-10.6312
aci	-10.6316
^4$	-10.6318
static	-10.6319
▁/	-10.632
▁Imaging	-10.6321
stellar	-10.6322
▁slowly	-10.6327
▁investigations	-10.633
lim	-10.6333
▁otherwise	-10.6334
▁Ab	-10.6337
▁Extensive	-10.634
▁Correlation	-10.6348
▁hopping	-10.6349
▁happen	-10.6351
solution	-10.6356
▁Scattering	-10.6367
▁choices	-10.6369
Le	-10.637
rid	-10.6375
▁priori	-10.6382
▁outflows	-10.6383
oy	-10.6384
▁Bethe	-10.6385
▁adapted	-10.6387
ldots	-10.6389
▁conceptual	-10.6396
▁specified	-10.6399
▁Tri	-10.6401
▁simpler	-10.6404
inf	-10.6404
▁assignment	-10.6405
▁incomplete	-10.6411
varphi	-10.6417
▁fourth	-10.6417
hydrodynamic	-10.6421
US	-10.6423
assisted	-10.6429
▁reached	-10.6429
▁Lipschitz	-10.643
---	-10.6432
59	-10.6432
▁Iso	-10.6433
▁insulating	-10.6434
▁difficulty	-10.6434
pass	-10.6436
▁remote	-10.6443
▁decisions	-10.6448
▁template	-10.6448
0}$	-10.6448
▁pairwise	-10.6451
▁correctly	-10.6456
▁eliminate	-10.6457
93	-10.6465
▁insulators	-10.6466
▁centers	-10.6469
=(	-10.6469
▁Adaptive	-10.6471
98	-10.6478
▁monoid	-10.6481
▁globally	-10.6483
52	-10.6486
▁emphasize	-10.6488
resp	-10.649
▁cent	-10.649
tron	-10.6491
▁plasmon	-10.6491
▁remnant	-10.6496
▁metals	-10.6498
▁Massive	-10.6498
pen	-10.6505
▁personal	-10.6507
▁MIMO	-10.6518
▁electrostatic	-10.6523
▁tetra	-10.6531
temporal	-10.6536
peak	-10.6542
▁spherically	-10.6545
▁Of	-10.6549
▁diffusive	-10.655
▁Auto	-10.6553
bound	-10.6554
▁Universal	-10.6557
lepton	-10.6559
struct	-10.6562
89	-10.6566
▁(3)	-10.6568
▁focuses	-10.6573
▁MS	-10.6576
▁powers	-10.6578
chemical	-10.6579
▁seed	-10.6579
▁bubble	-10.6581
▁my	-10.6586
umer	-10.6589
$_4$	-10.6594
▁unbounded	-10.6595
▁fashion	-10.6595
degenerate	-10.6599
ata	-10.6603
learning	-10.6603
▁vibrational	-10.6606
gel	-10.6607
▁refinement	-10.6608
▁vanishes	-10.6611
valent	-10.6611
^1$	-10.6612
▁recorded	-10.6614
▁der	-10.6614
▁Ag	-10.6614
▁smart	-10.6618
▁captured	-10.6619
▁arrangement	-10.662
77	-10.6622
▁evaluating	-10.6623
FI	-10.6634
▁Channel	-10.6634
▁inflationary	-10.6638
▁controlling	-10.6641
▁baryons	-10.6644
▁Functions	-10.6645
^{(	-10.6646
▁packing	-10.6647
▁cusp	-10.6647
▁responses	-10.6647
vibration	-10.6648
▁goes	-10.6649
76	-10.6656
crystal	-10.6658
▁Calabi	-10.6659
GAN	-10.6659
▁Vo	-10.6661
weight	-10.6665
▁topics	-10.6666
▁helicity	-10.6671
▁implementations	-10.6674
hu	-10.6675
tant	-10.6675
▁recovered	-10.668
ana	-10.6682
▁Abelian	-10.6683
▁robotic	-10.6686
86	-10.669
▁choose	-10.669
0.9	-10.6695
▁yielding	-10.6696
principles	-10.6699
▁demonstration	-10.6707
rod	-10.6708
▁proceed	-10.6708
▁percent	-10.6709
54	-10.6711
width	-10.6715
norm	-10.6732
matter	-10.6735
▁ansatz	-10.6736
▁inclusive	-10.674
▁poor	-10.674
▁Feynman	-10.6741
ducing	-10.6744
▁approximated	-10.6744
▁retain	-10.6744
▁overhead	-10.6746
▁robots	-10.675
▁Classical	-10.6751
▁deliver	-10.6759
63	-10.676
ode	-10.6762
ifier	-10.6765
HI	-10.6768
Bi	-10.6773
▁Symmetry	-10.6775
▁crowd	-10.6775
shi	-10.6776
▁linked	-10.6782
▁Set	-10.6783
metry	-10.6783
▁deduce	-10.6787
▁head	-10.6788
▁occurring	-10.6795
▁comprise	-10.6802
oil	-10.6806
standard	-10.6808
diff	-10.6809
neutrino	-10.6811
fermion	-10.6815
▁Statistical	-10.6815
▁utilized	-10.6817
▁era	-10.682
▁subgraph	-10.6824
stage	-10.6831
▁braid	-10.6837
ility	-10.6847
▁seem	-10.6847
▁decaying	-10.685
▁Factor	-10.685
▁:	-10.6852
GeV	-10.6855
▁orbifold	-10.6856
RF	-10.6857
▁contraction	-10.6861
▁encoder	-10.6868
▁Lu	-10.6868
▁sight	-10.6871
▁Complex	-10.6877
_{2}	-10.6877
da	-10.6879
▁inclination	-10.6879
parametric	-10.6881
interacting	-10.6881
limited	-10.6887
▁Unit	-10.6887
homo	-10.6892
▁NS	-10.6901
path	-10.6904
▁Stars	-10.6906
parallel	-10.6914
▁validation	-10.6919
▁acts	-10.6921
QCD	-10.6925
gress	-10.6932
▁Compared	-10.6934
▁MHD	-10.6934
▁According	-10.6936
OR	-10.6938
▁Sobolev	-10.6944
FC	-10.6945
▁empirically	-10.695
▁heterostructure	-10.6951
▁protons	-10.6951
▁$1/	-10.6954
▁shallow	-10.6959
▁tunable	-10.6961
frame	-10.6963
user	-10.6968
folds	-10.697
axial	-10.6971
▁platforms	-10.6976
▁violate	-10.6987
▁Galois	-10.699
LF	-10.699
▁https	-10.6996
▁respective	-10.7001
▁packet	-10.7004
▁independence	-10.7009
▁ranking	-10.701
▁flexibility	-10.7012
▁analogy	-10.7013
▁preserve	-10.7015
ribbon	-10.7017
▁supporting	-10.702
▁merging	-10.7024
▁Mod	-10.7026
▁competing	-10.7027
acy	-10.7028
▁Background	-10.7028
▁500	-10.7031
▁evolved	-10.7035
▁Go	-10.7037
▁timescale	-10.7037
Cl	-10.7037
▁consist	-10.7038
▁Gas	-10.7039
▁validated	-10.705
void	-10.7053
▁live	-10.7055
ros	-10.7058
loss	-10.7058
CF	-10.7063
▁organization	-10.7064
▁impurities	-10.7072
fine	-10.7076
▁DA	-10.7077
▁assist	-10.708
▁toric	-10.7092
▁agrees	-10.7095
▁Thermal	-10.7095
▁topologically	-10.7098
ff	-10.7098
▁Doppler	-10.7099
▁stabilize	-10.7103
▁Differential	-10.7107
▁amounts	-10.7109
▁exposure	-10.711
▁chemistry	-10.7114
▁initio	-10.712
▁Language	-10.7125
▁magnitudes	-10.7127
propto	-10.7128
deg	-10.7129
▁infrastructure	-10.7136
▁SI	-10.7138
▁generalizations	-10.7138
▁Distributed	-10.7141
▁routing	-10.7141
▁Generation	-10.7142
negative	-10.7142
▁expand	-10.7147
iter	-10.7148
▁aggregation	-10.7152
gr	-10.7152
empty	-10.7156
▁MHz	-10.7158
▁themselves	-10.716
▁deg	-10.7162
▁aligned	-10.7162
▁axiom	-10.7165
▁Heavy	-10.717
production	-10.7173
NI	-10.7173
▁possibilities	-10.718
▁viable	-10.718
▁reversal	-10.7182
zeta	-10.7184
▁deployment	-10.7187
▁offset	-10.7188
▁automorphism	-10.7189
▁Seyfert	-10.7193
▁team	-10.7198
variance	-10.7201
1/2	-10.7203
▁th	-10.7205
length	-10.7206
▁nanoparticles	-10.7206
BL	-10.7206
ativity	-10.7207
▁Feature	-10.721
▁consensus	-10.721
LL	-10.7211
▁cylindrical	-10.7212
(4)	-10.7213
▁timescales	-10.7214
▁hadrons	-10.7217
HO	-10.7217
▁conclusions	-10.7221
para	-10.7222
singular	-10.7225
▁Free	-10.723
▁morphological	-10.723
github	-10.7233
▁Newtonian	-10.7235
▁ages	-10.7236
▁letter	-10.7239
53	-10.7244
▁trapping	-10.7252
▁backgrounds	-10.7253
▁Adversarial	-10.7259
▁QSO	-10.726
▁NN	-10.7261
solar	-10.7262
▁diamond	-10.7264
▁restrictions	-10.7264
▁doublet	-10.7267
▁arXiv	-10.7268
▁continuity	-10.7268
modules	-10.7269
scalar	-10.7271
▁Jupiter	-10.7272
▁operational	-10.7273
▁Measurements	-10.7282
GE	-10.7285
▁inertial	-10.7286
▁Sky	-10.7287
tribut	-10.7287
▁parent	-10.7299
▁Consequently	-10.7299
▁GRBs	-10.73
▁winds	-10.73
▁averaged	-10.7306
▁organic	-10.7306
▁Performance	-10.7309
Gordon	-10.731
▁extensively	-10.7312
▁tuned	-10.732
▁attributes	-10.7324
dri	-10.7325
▁filaments	-10.733
▁divisor	-10.7334
Ru	-10.7338
▁disappear	-10.734
▁fitted	-10.734
▁1/2	-10.734
▁Approximation	-10.7351
▁circumstellar	-10.7351
minimal	-10.7351
▁shorter	-10.7352
evy	-10.7353
rangle	-10.7355
ether	-10.7357
▁items	-10.7362
gram	-10.7365
hel	-10.7369
rov	-10.737
▁intense	-10.737
apping	-10.737
▁quickly	-10.7372
gluon	-10.7377
▁2.5	-10.7379
▁revisit	-10.738
ogen	-10.7384
▁separately	-10.7386
▁Event	-10.7386
▁wavefunction	-10.7387
▁maser	-10.7389
▁cancer	-10.739
▁transforms	-10.7392
▁macro	-10.7395
tone	-10.7399
gravity	-10.7406
▁probes	-10.7415
▁IoT	-10.7417
▁dedicated	-10.742
▁BL	-10.7421
▁patients	-10.7421
▁Constraints	-10.7421
▁23	-10.7424
▁persistent	-10.7426
▁Spatial	-10.743
spec	-10.7434
▁communities	-10.7437
▁Mor	-10.7437
BN	-10.7439
▁randomized	-10.744
▁forcing	-10.7441
▁Boolean	-10.7443
lated	-10.7447
▁Digital	-10.745
▁Chiral	-10.7454
▁carefully	-10.7455
handed	-10.7455
redshift	-10.7455
VI	-10.7457
▁Pi	-10.746
_4	-10.7461
rot	-10.7466
▁communications	-10.7468
▁Cooper	-10.7469
arrow	-10.747
^{2}	-10.7472
▁Anderson	-10.7473
▁reproduces	-10.7475
▁expectations	-10.748
1%	-10.7481
nuclear	-10.7482
tens	-10.7482
▁partitions	-10.7483
▁feed	-10.7485
boson	-10.7487
▁file	-10.7488
▁DR	-10.7494
▁pay	-10.7494
▁coincide	-10.7506
▁emerges	-10.7518
▁subspaces	-10.7521
connect	-10.7523
▁Active	-10.7523
▁forecast	-10.7532
▁conjugate	-10.7532
iff	-10.7533
▁dependencies	-10.7538
▁Visual	-10.7544
dependence	-10.7546
91	-10.7547
rom	-10.755
2.5	-10.755
▁equivariant	-10.7551
▁Theoretical	-10.7556
stitu	-10.756
▁translate	-10.7561
▁captures	-10.7562
parity	-10.7565
▁met	-10.7568
AI	-10.7571
▁creating	-10.7573
▁classifiers	-10.7576
▁waveform	-10.7578
pul	-10.7583
▁tissue	-10.7585
▁diffeomorphism	-10.7586
wall	-10.7587
▁eta	-10.7599
▁concerns	-10.76
▁grow	-10.7601
{1}{	-10.7603
Abelian	-10.7604
fluid	-10.7606
▁Stability	-10.7608
▁optimality	-10.7608
▁trust	-10.761
▁RHIC	-10.7611
▁dilaton	-10.7611
spectral	-10.7615
▁scattered	-10.7617
▁automata	-10.7619
▁relating	-10.7629
▁definite	-10.763
mag	-10.763
posed	-10.7631
▁accompanied	-10.7633
}^{\	-10.7633
math	-10.7635
0)$	-10.7637
▁nematic	-10.7647
▁discontinuous	-10.7647
▁multiplier	-10.7648
▁wavelet	-10.765
▁absorber	-10.7654
agnetoresistance	-10.7655
▁eventually	-10.7657
▁tunnel	-10.7659
distribution	-10.7662
ties	-10.7663
label	-10.7666
synchron	-10.7667
itation	-10.767
▁backward	-10.767
▁coincides	-10.7673
▁Mean	-10.7675
▁RF	-10.7679
▁graphical	-10.768
▁Understanding	-10.7681
Hz	-10.7681
ong	-10.7681
▁quadrupole	-10.7684
▁Domain	-10.7688
coding	-10.7692
▁Laplace	-10.7699
▁Relativity	-10.7701
▁satellites	-10.7705
screen	-10.7706
▁Poly	-10.7707
▁delta	-10.7707
▁Sw	-10.7708
▁ATLAS	-10.7708
▁considerations	-10.771
▁Vector	-10.7711
▁azimuthal	-10.7712
preserving	-10.7715
▁instruments	-10.772
▁never	-10.772
etting	-10.7729
▁dilute	-10.773
▁mining	-10.7733
▁cat	-10.7735
lie	-10.7736
tail	-10.7737
ened	-10.7747
otimes	-10.775
▁antenna	-10.7754
▁difficulties	-10.7756
▁1.2	-10.7759
roll	-10.776
▁normalization	-10.776
▁Tree	-10.7761
▁seek	-10.7762
▁mixtures	-10.7765
92	-10.7765
▁Double	-10.7767
66	-10.7767
▁foreground	-10.7767
read	-10.7768
scopic	-10.7769
▁clarify	-10.7769
88	-10.777
RP	-10.7783
▁reaches	-10.7786
▁hydrodynamics	-10.7787
diagonal	-10.779
▁explains	-10.7791
▁unprecedented	-10.7798
82	-10.7801
▁amplification	-10.7802
▁proto	-10.7805
^2)$	-10.7805
▁Har	-10.7805
▁Relativistic	-10.7808
▁machines	-10.781
▁drawn	-10.7811
▁neither	-10.7811
▁adjacent	-10.7813
▁Sha	-10.7814
3/2	-10.7814
▁asymptotics	-10.7815
▁3$	-10.782
▁say	-10.7821
▁addresses	-10.7824
monotonic	-10.7825
lines	-10.7827
halo	-10.7828
▁carriers	-10.7832
awa	-10.7836
▁videos	-10.7838
▁discs	-10.7838
▁pathway	-10.784
▁meaningful	-10.7844
▁Transport	-10.7845
task	-10.7856
▁spreading	-10.7858
▁cooperative	-10.7861
▁latency	-10.7861
▁ejecta	-10.787
▁median	-10.7873
▁incompressible	-10.7878
▁players	-10.7885
well	-10.7886
▁valley	-10.7887
▁sl	-10.7887
earth	-10.7889
▁presentation	-10.7891
ani	-10.7891
ench	-10.7895
▁squared	-10.7895
69	-10.7895
▁comparisons	-10.7899
▁phenomenology	-10.7899
▁DNN	-10.79
▁monotone	-10.7903
▁reconnection	-10.7909
stabil	-10.7911
▁Supernova	-10.7914
imate	-10.7916
ace	-10.7925
▁yr	-10.7928
▁detectable	-10.7932
▁comb	-10.7932
adjoint	-10.7935
stationary	-10.7938
wa	-10.7946
▁layered	-10.795
▁valuable	-10.7952
▁drag	-10.7955
▁encoded	-10.7955
▁successive	-10.7957
abelian	-10.7961
▁learns	-10.7961
▁Spitzer	-10.7966
▁tomography	-10.7966
▁pulsation	-10.7967
▁neurons	-10.797
▁decade	-10.798
▁multiplication	-10.7987
▁1.4	-10.7996
▁Parameter	-10.7998
▁Stokes	-10.7998
asse	-10.8001
▁Regular	-10.8001
FA	-10.8002
▁private	-10.8005
att	-10.8008
▁Computing	-10.8009
ln	-10.8015
▁belief	-10.8016
▁visualization	-10.8019
Sch	-10.8019
▁govern	-10.8021
izability	-10.8023
1,2	-10.8023
functions	-10.803
print	-10.8032
-$\	-10.8035
modular	-10.8038
-1$	-10.804
gas	-10.8042
▁DC	-10.8043
▁What	-10.8043
▁colliders	-10.8044
▁Very	-10.8045
dominated	-10.8047
▁today	-10.8048
lam	-10.8052
▁mimic	-10.8053
▁devoted	-10.8056
▁uniquely	-10.8067
▁Line	-10.8068
▁bits	-10.8068
▁afterglow	-10.8072
▁ferroelectric	-10.8072
▁averaging	-10.8076
stream	-10.808
▁opinion	-10.8083
▁0.01	-10.8094
(3	-10.8096
▁logical	-10.8098
▁try	-10.8099
▁relic	-10.8101
▁Human	-10.8101
potential	-10.8103
▁audio	-10.8103
poor	-10.8103
▁Operator	-10.8104
▁frequently	-10.8108
▁Higher	-10.8108
▁blazar	-10.8109
▁hydro	-10.811
▁parametrization	-10.8113
▁latest	-10.8117
encies	-10.8117
▁motivation	-10.812
▁huge	-10.812
▁Observation	-10.8123
▁biased	-10.8125
▁emergent	-10.8126
▁substitution	-10.813
▁Framework	-10.8135
_3$	-10.8143
▁phonons	-10.8147
▁Combining	-10.8151
BP	-10.8151
▁condensed	-10.8152
▁outputs	-10.8152
▁hours	-10.8157
▁port	-10.8159
▁Geometric	-10.8159
▁investigating	-10.8164
▁argued	-10.8169
scattering	-10.817
▁Algebra	-10.817
▁metastable	-10.8171
▁Critical	-10.8171
commut	-10.8175
omer	-10.8177
rig	-10.8179
▁keep	-10.8179
▁exhibiting	-10.8181
▁squares	-10.8181
▁replaced	-10.8183
600	-10.8184
▁truncated	-10.8188
▁classic	-10.8189
79	-10.8194
▁Fields	-10.8196
▁implying	-10.8197
itic	-10.8198
▁Delta	-10.8206
complex	-10.8214
direct	-10.8215
▁Lambda	-10.8216
▁contextual	-10.8218
where	-10.8221
▁Test	-10.8229
▁Graphs	-10.8236
▁selective	-10.8244
▁Compact	-10.8245
▁person	-10.8246
tree	-10.8251
▁semimetal	-10.8252
dom	-10.8254
▁forest	-10.8259
4.5	-10.8259
▁piecewise	-10.8259
▁contrary	-10.8268
▁ongoing	-10.8268
ule	-10.8271
▁projections	-10.8271
▁maintaining	-10.8275
used	-10.8276
varying	-10.8284
▁repeated	-10.8284
▁Nevertheless	-10.8289
▁impose	-10.8291
mean	-10.8291
pur	-10.8292
▁deposition	-10.8292
▁Sum	-10.8296
▁decoder	-10.8296
▁tip	-10.8298
_{1}	-10.8299
▁circum	-10.8304
▁road	-10.8307
▁style	-10.831
▁pole	-10.8312
▁entirely	-10.8313
▁cavities	-10.8314
▁GR	-10.8321
▁clump	-10.8328
▁promise	-10.8328
▁totally	-10.8332
{3}	-10.8338
ify	-10.834
▁undergo	-10.8348
▁trial	-10.8349
▁magnon	-10.8353
▁Stellar	-10.8355
▁unexpected	-10.8356
▁hetero	-10.836
aster	-10.8361
78	-10.8361
▁characterise	-10.8362
ware	-10.8365
▁historical	-10.8365
▁assembly	-10.8366
close	-10.8381
▁begin	-10.8383
▁unity	-10.8385
▁doubly	-10.8388
▁Dimension	-10.8394
(1)$	-10.8395
▁Evidence	-10.8399
▁Algorithms	-10.8401
▁virial	-10.8405
tation	-10.8406
▁unlike	-10.8407
▁magnetized	-10.8414
▁accounts	-10.8414
strict	-10.8414
(4	-10.8414
▁dynamo	-10.8416
metal	-10.8418
▁grown	-10.8419
data	-10.843
▁Communication	-10.843
▁shadow	-10.843
ogram	-10.8431
▁worst	-10.8433
▁compressed	-10.8433
▁Temperature	-10.8436
▁electrodynamics	-10.8437
ven	-10.8438
▁entries	-10.844
▁hypergraph	-10.8441
▁concerned	-10.8441
▁Following	-10.8444
▁pointed	-10.8444
^2)	-10.845
▁Gibbs	-10.8452
▁leptons	-10.8455
+1$	-10.8456
▁Emission	-10.8459
▁adjoint	-10.8459
▁cognitive	-10.846
▁entities	-10.8461
Be	-10.8468
▁Photon	-10.8468
▁emitting	-10.8468
▁Disc	-10.8468
▁Potential	-10.8476
flat	-10.8478
▁oscillatory	-10.8483
standing	-10.8484
▁ultracold	-10.8492
▁Tur	-10.8493
▁Tc	-10.8494
sight	-10.85
Theta	-10.85
▁Recognition	-10.8501
▁dipolar	-10.8503
▁exploring	-10.8504
▁HII	-10.8504
▁runs	-10.8504
▁polygon	-10.8507
▁tangent	-10.8507
▁Science	-10.8517
TiO	-10.852
300	-10.8525
▁Tevatron	-10.853
_{0}	-10.8531
meson	-10.8531
▁RR	-10.8531
▁mutation	-10.8533
▁fails	-10.8534
▁exploited	-10.8536
▁Ber	-10.8543
▁library	-10.8547
ball	-10.8552
▁linearized	-10.8554
▁updated	-10.8555
▁antiferromagnet	-10.8556
(5)	-10.8558
qua	-10.8563
IV	-10.8565
lac	-10.8568
▁Magellanic	-10.8569
Ba	-10.8572
▁attribute	-10.8572
8%	-10.8576
▁Hybrid	-10.8577
▁1.0	-10.8582
▁Cosmological	-10.8582
▁reaching	-10.8584
▁AC	-10.8586
nabla	-10.8586
semi	-10.859
▁Path	-10.8595
▁SFR	-10.8597
▁Production	-10.8599
▁surprisingly	-10.8602
▁saturate	-10.8603
zy	-10.8605
▁von	-10.8607
-1/2	-10.8607
▁conflict	-10.8609
▁matches	-10.8613
EE	-10.8623
oth	-10.8625
▁again	-10.8628
▁nanoscale	-10.8629
spheric	-10.863
ending	-10.8635
sym	-10.8636
▁isospin	-10.864
▁fuzzy	-10.8643
▁extragalactic	-10.8647
▁deriving	-10.8647
▁passage	-10.8647
▁Hermitian	-10.8654
▁strict	-10.8659
▁maximally	-10.8661
▁opportunities	-10.8664
mers	-10.8665
▁gains	-10.8666
▁definitions	-10.8666
)=\	-10.8667
coupled	-10.8668
▁characters	-10.8669
▁LA	-10.8671
▁plot	-10.8672
▁dominate	-10.8676
▁gold	-10.8681
▁remarkably	-10.8683
▁atmospheres	-10.8685
▁skyrmion	-10.8688
▁nodal	-10.8689
▁Tra	-10.8689
▁acquisition	-10.869
▁Process	-10.8694
▁ever	-10.8696
▁recurrence	-10.8697
homogeneous	-10.8697
▁rough	-10.8699
▁Polar	-10.8701
▁accreting	-10.8705
83	-10.8708
▁parameterized	-10.8715
▁Gaia	-10.8716
▁thorough	-10.8718
▁proteins	-10.872
▁nilpotent	-10.8722
▁Binary	-10.8724
▁90	-10.8725
▁Full	-10.8726
▁recommend	-10.8728
▁implementing	-10.873
▁Rate	-10.8734
plication	-10.8734
▁epidemic	-10.8736
▁precession	-10.8742
lived	-10.8749
0,1	-10.8751
▁max	-10.8752
▁interested	-10.8753
▁Bloch	-10.8754
iding	-10.8761
smooth	-10.8763
84	-10.8764
▁prescription	-10.8775
▁modulated	-10.8777
▁Discrete	-10.8777
▁stabilization	-10.878
▁regarded	-10.8781
▁Sol	-10.8788
▁Scale	-10.879
▁Klein	-10.8792
▁assign	-10.8792
hot	-10.8794
▁push	-10.8794
trop	-10.8798
aries	-10.8798
▁Simple	-10.8801
▁plateau	-10.8804
▁referred	-10.8805
4}	-10.8806
▁Four	-10.8806
▁biases	-10.8809
▁probed	-10.8811
▁dramatically	-10.8811
differential	-10.8813
▁prescribed	-10.8815
▁Game	-10.8815
uring	-10.8817
most	-10.8819
▁Nuclear	-10.882
QA	-10.8821
▁graviton	-10.8823
ground	-10.883
▁corrected	-10.8833
▁arrival	-10.8834
▁preferred	-10.8834
▁manage	-10.8835
variant	-10.8836
▁Man	-10.8838
▁branes	-10.8844
▁nucleation	-10.8847
▁incorporates	-10.8849
▁belong	-10.885
3%	-10.8852
▁Interestingly	-10.8852
▁Mono	-10.8853
61	-10.8858
▁IV	-10.8859
▁1.3	-10.8859
▁Math	-10.886
▁plausible	-10.8861
▁GL	-10.8863
▁believe	-10.8864
multi	-10.8865
ada	-10.8866
▁asteroid	-10.8869
▁Short	-10.8872
▁Minimal	-10.8877
▁CFT	-10.8883
▁prompt	-10.8887
▁generalizing	-10.8894
etermin	-10.8902
▁prospects	-10.8904
BO	-10.8905
Sh	-10.8906
eel	-10.8918
▁measurable	-10.8919
ama	-10.892
▁positron	-10.8922
▁concentrations	-10.8925
▁receive	-10.8931
vir	-10.8935
▁Hausdorff	-10.894
▁mitigate	-10.8941
▁hypotheses	-10.8943
▁scalability	-10.8943
▁Rayleigh	-10.8944
▁Calculat	-10.8946
▁comparative	-10.8949
▁corpus	-10.8951
▁Context	-10.8958
▁breaks	-10.896
▁Conjecture	-10.8964
loud	-10.8965
(0)	-10.8967
▁budget	-10.8972
▁viewpoint	-10.8973
▁opportunity	-10.8974
▁optimizing	-10.8975
▁establishing	-10.8978
▁nitrogen	-10.8981
agent	-10.8982
▁interactive	-10.8982
▁adequate	-10.8985
110	-10.8986
▁Poincar	-10.8987
curve	-10.8987
▁Geometry	-10.8987
▁eigenstates	-10.8991
▁intuitive	-10.8991
stra	-10.8993
62	-10.8994
Po	-10.8995
▁believed	-10.8996
▁Infrared	-10.8998
ural	-10.9004
bb	-10.9011
▁disturbance	-10.9013
▁truth	-10.9018
▁unification	-10.9025
▁marked	-10.9026
▁exceeds	-10.9032
▁sustain	-10.9033
module	-10.9034
▁Act	-10.9034
▁reflected	-10.9036
2%	-10.9037
▁mesoscopic	-10.9044
test	-10.9046
▁Ion	-10.905
▁equilibria	-10.9053
▁2015	-10.9054
▁safe	-10.9056
oph	-10.906
▁Theories	-10.9062
▁ago	-10.9068
▁$[	-10.9069
▁instantaneous	-10.9076
▁magnetism	-10.9076
▁segments	-10.9079
variable	-10.9081
▁request	-10.9081
▁uncertain	-10.9085
lingual	-10.9088
▁Born	-10.9092
▁Supersymmetric	-10.9095
▁simplicial	-10.9097
▁indication	-10.9097
▁mappings	-10.9107
73	-10.911
▁originally	-10.9111
▁conservative	-10.9114
take	-10.9119
phys	-10.9126
cycl	-10.9128
▁survival	-10.913
▁helps	-10.9134
aka	-10.9134
equiv	-10.9134
▁SE	-10.9138
oll	-10.9139
▁27	-10.9147
▁convective	-10.9147
▁ladder	-10.9151
▁MSSM	-10.9152
▁ghost	-10.9155
ception	-10.9156
acing	-10.9157
condition	-10.916
▁ill	-10.9161
▁damage	-10.9166
▁Fisher	-10.9169
▁accounting	-10.9171
textrm	-10.9173
▁coexistence	-10.9174
▁hypersurfaces	-10.9175
^5	-10.9176
forward	-10.918
uter	-10.9182
▁Hawking	-10.9182
▁Semantic	-10.9186
▁broadband	-10.9189
oriented	-10.9193
ller	-10.9202
▁answers	-10.9204
gtrsim	-10.9204
▁transformed	-10.9205
▁Jacobi	-10.9208
▁Young	-10.9209
▁GAN	-10.921
ordered	-10.9211
▁appearing	-10.9212
▁Reinforcement	-10.9213
▁mentioned	-10.9214
▁Run	-10.9217
▁unbiased	-10.9219
▁Region	-10.9219
▁truncation	-10.9227
1.0	-10.9228
▁emotion	-10.923
formed	-10.9231
onium	-10.9234
▁PT	-10.9238
▁neighbor	-10.924
▁connecting	-10.9241
▁convenient	-10.9245
▁stop	-10.9252
degree	-10.9254
▁suited	-10.9254
▁nonnegative	-10.9257
velocity	-10.9257
distance	-10.9258
▁desirable	-10.9265
▁solely	-10.9267
posit	-10.9268
▁readily	-10.9268
▁intelligence	-10.9272
▁multilayer	-10.9275
dimension	-10.9277
▁corner	-10.9284
▁syn	-10.9286
▁regard	-10.9286
▁Solutions	-10.929
▁attempts	-10.9297
▁closer	-10.9298
yer	-10.93
▁~1	-10.9301
▁balanced	-10.9307
▁Pol	-10.931
▁messages	-10.9312
▁Hamilton	-10.9312
▁probing	-10.9313
▁broadening	-10.9313
training	-10.9318
▁speaker	-10.932
_1(	-10.9322
7%	-10.9322
▁played	-10.9325
scaling	-10.933
▁conducting	-10.933
▁displays	-10.9331
▁similarities	-10.9331
▁resemble	-10.9336
▁publication	-10.9338
duce	-10.9339
▁governing	-10.9344
▁dex	-10.9345
81	-10.9346
▁Reynolds	-10.9348
▁becoming	-10.935
rust	-10.935
▁encounter	-10.9351
▁sampled	-10.9353
dim	-10.9358
▁availability	-10.9362
▁Transfer	-10.9363
▁cancellation	-10.9366
▁covered	-10.9369
▁roots	-10.9371
▁uncover	-10.9373
▁eigenfunctions	-10.9375
▁[1]	-10.9375
under	-10.938
▁oscillating	-10.938
two	-10.9381
▁stock	-10.9386
▁permutations	-10.9386
flect	-10.9387
▁modelled	-10.9387
▁dispersive	-10.9387
▁substructure	-10.9389
▁rho	-10.9391
▁Existing	-10.9398
weighted	-10.94
▁Anti	-10.9405
▁GP	-10.9406
")	-10.9415
▁mediated	-10.9421
▁astronomical	-10.9426
▁Swift	-10.9428
▁hexagonal	-10.943
74	-10.9433
▁ubiquitous	-10.9434
Planck	-10.9435
BI	-10.9435
▁theoretic	-10.9436
▁35	-10.9443
▁baselines	-10.9446
▁regularized	-10.9449
sheet	-10.9452
▁continuation	-10.9454
▁confirms	-10.9464
▁Starting	-10.9464
▁branches	-10.9466
▁Big	-10.9469
▁MO	-10.947
▁spike	-10.9476
OI	-10.9479
Wave	-10.9479
▁subalgebra	-10.9482
▁matched	-10.9484
posedness	-10.9485
(0,	-10.9486
▁slice	-10.9489
▁whenever	-10.949
▁participants	-10.9495
▁Metal	-10.9505
▁dislocation	-10.9505
aff	-10.9511
▁minima	-10.9512
▁decoupling	-10.9515
oot	-10.9516
▁artifact	-10.952
▁NO	-10.9526
▁promote	-10.9528
Cr	-10.9535
▁quiver	-10.9538
now	-10.954
▁opening	-10.9542
▁pronounced	-10.9542
▁centered	-10.9544
loc	-10.9544
▁Problems	-10.9546
▁differs	-10.9552
▁toroidal	-10.9557
Fermi	-10.956
6%	-10.9561
▁driver	-10.9563
groups	-10.9566
▁reasons	-10.9566
itter	-10.9567
6}$	-10.957
▁mapped	-10.957
▁acquired	-10.9573
▁flag	-10.9574
▁sectors	-10.9575
ohn	-10.9581
▁piece	-10.9582
quantum	-10.9588
head	-10.9588
▁dominates	-10.9589
▁lambda	-10.9592
▁Not	-10.9593
violating	-10.9599
_2(	-10.96
▁scores	-10.96
▁moves	-10.9601
sided	-10.9601
cup	-10.9601
vin	-10.9602
▁Social	-10.9604
eno	-10.9605
▁rigidity	-10.9606
▁extracting	-10.9612
▁transmitter	-10.9612
▁EM	-10.9613
▁Number	-10.9616
▁lateral	-10.9616
▁accelerate	-10.9617
^2\	-10.9625
▁poorly	-10.9628
LTE	-10.9628
ESS	-10.9629
▁Collision	-10.9632
▁amorphous	-10.9632
▁Neutron	-10.964
▁forecasting	-10.964
▁SF	-10.9641
▁commercial	-10.9644
▁SED	-10.9644
▁Various	-10.9646
▁Logic	-10.9651
Sb	-10.9651
▁That	-10.9654
▁Hom	-10.9656
▁Gradient	-10.9658
▁augmented	-10.9661
AGN	-10.9662
logical	-10.9662
▁correlate	-10.9674
▁exceed	-10.9674
▁bilinear	-10.9675
▁exploits	-10.9678
▁Hartree	-10.9679
▁Special	-10.9683
itude	-10.969
▁intensities	-10.9692
2.2	-10.9694
4%	-10.9699
▁aimed	-10.9714
▁refined	-10.9716
▁directional	-10.9719
▁Entropy	-10.972
▁annealing	-10.972
▁Langevin	-10.9721
▁comet	-10.9723
▁persist	-10.9727
▁Physical	-10.9729
▁integrating	-10.973
▁Boson	-10.9735
▁relax	-10.974
play	-10.975
▁Considering	-10.9751
2+	-10.9753
lev	-10.9757
neq	-10.9769
van	-10.9771
%)	-10.9774
▁Variable	-10.9774
orbital	-10.9775
▁plasmonic	-10.9783
▁Comment	-10.9788
▁South	-10.9789
▁generalised	-10.9792
measure	-10.9792
arity	-10.9799
▁supermassive	-10.98
▁striking	-10.9805
▁smoothing	-10.9806
▁helical	-10.9806
▁dependency	-10.9808
▁talk	-10.981
disc	-10.9811
▁1000	-10.9812
morph	-10.9818
wide	-10.9823
gam	-10.9824
▁repulsion	-10.9826
▁secret	-10.9831
▁150	-10.9832
▁unitarity	-10.9834
▁clumps	-10.9846
atter	-10.9847
$_{\	-10.9849
binding	-10.9851
langle	-10.9854
▁Meta	-10.9861
▁unambiguous	-10.9862
▁passing	-10.9864
▁tens	-10.987
abilities	-10.9871
▁write	-10.9871
▁streaming	-10.9872
▁Functional	-10.9875
▁spontaneously	-10.9876
born	-10.9878
$^2$	-10.9879
▁simulator	-10.9882
cavity	-10.9882
gl	-10.9883
▁decide	-10.9888
CuO	-10.9893
rated	-10.9897
▁ISM	-10.9898
▁28	-10.99
▁extrapolation	-10.99
▁Hi	-10.9905
vid	-10.9908
▁searching	-10.991
▁vast	-10.991
▁Pair	-10.9912
▁engineer	-10.9921
▁heterogeneity	-10.9922
▁union	-10.9922
▁BPS	-10.9923
▁imperfect	-10.9923
▁pool	-10.9933
▁Beyond	-10.9936
▁Fano	-10.9937
▁severe	-10.9945
▁integrability	-10.9945
▁epi	-10.9946
▁incorporated	-10.9947
▁acquire	-10.9947
▁devise	-10.9949
▁Burst	-10.995
▁patient	-10.9953
▁did	-10.9954
▁disjoint	-10.9956
▁predictor	-10.9958
▁Ir	-10.9961
vanishing	-10.9963
▁Text	-10.9964
▁prepared	-10.9966
flex	-10.9972
▁subsequently	-10.9972
▁stand	-10.9973
▁perovskite	-10.9978
▁deployed	-10.9981
▁Stein	-10.9983
cher	-10.9987
▁Disk	-10.999
▁equality	-10.9992
▁UAV	-10.9992
▁Electric	-10.9993
▁degradation	-10.9993
ava	-10.9994
▁paramagnetic	-10.9997
▁Cap	-11
▁semiconductors	-11.0004
▁tractable	-11.0004
▁cuprates	-11.0005
▁completeness	-11.0008
▁pseudoscalar	-11.0009
▁VI	-11.0011
▁baryonic	-11.0011
▁queue	-11.0013
▁industrial	-11.0015
▁quenching	-11.0017
▁urban	-11.0017
micro	-11.0018
▁tele	-11.0021
grid	-11.0022
physics	-11.0023
▁schedule	-11.0024
▁26	-11.0024
1/	-11.0025
▁Sparse	-11.0026
▁her	-11.0026
▁evolves	-11.0027
▁heavily	-11.0027
Hermitian	-11.003
▁Research	-11.0032
app	-11.0033
▁streams	-11.0034
▁2012	-11.0036
utter	-11.0037
volume	-11.0038
Lifshitz	-11.0038
▁hydrodynamical	-11.0041
▁imbalance	-11.0041
polarized	-11.0041
RNA	-11.0044
canonical	-11.0046
▁Other	-11.0046
▁RGB	-11.0048
▁augmentation	-11.0051
directional	-11.0054
▁Entanglement	-11.0054
▁Chain	-11.0057
equation	-11.0059
▁deduced	-11.0068
▁perception	-11.0068
▁indicators	-11.007
▁ferromagnet	-11.0071
▁industry	-11.0073
▁draw	-11.0074
▁divided	-11.0077
book	-11.0078
▁fibers	-11.0082
9%	-11.0084
▁realizations	-11.009
node	-11.0092
▁Online	-11.0092
▁quench	-11.0094
▁send	-11.0096
▁quiescent	-11.0096
▁saddle	-11.0096
▁geodesics	-11.0098
▁Hu	-11.01
(1/	-11.0103
▁breakdown	-11.0104
▁protected	-11.011
▁resist	-11.0112
▁metamaterial	-11.0114
hang	-11.0116
▁preserves	-11.0118
▁portion	-11.012
▁kaon	-11.0126
▁Hol	-11.0126
Fock	-11.0128
▁Block	-11.013
▁2016	-11.0131
▁leg	-11.0147
dense	-11.0147
▁transistor	-11.0148
▁porous	-11.0152
▁45	-11.0162
▁2010	-11.0164
▁depletion	-11.0166
▁sheaves	-11.0171
▁Tau	-11.0172
Pro	-11.0172
▁preparation	-11.0177
▁Wireless	-11.0179
▁Possible	-11.018
run	-11.0182
▁vanish	-11.0184
▁automorphisms	-11.0186
▁terminal	-11.0187
▁wider	-11.0195
Higgs	-11.0197
▁supplement	-11.0199
▁eccentric	-11.0201
▁2000	-11.0204
▁10%	-11.0207
▁Principle	-11.0207
▁CMS	-11.0212
cone	-11.0212
▁Hz	-11.0217
▁Coupling	-11.0218
▁row	-11.022
▁RL	-11.022
^{-3}	-11.0225
▁removed	-11.0225
▁residue	-11.0228
▁2017	-11.0232
▁eccentricity	-11.0236
▁randomness	-11.024
▁contour	-11.0247
▁possesses	-11.0249
2.4	-11.0251
clinic	-11.0252
▁Correct	-11.0252
▁hope	-11.0255
beam	-11.0255
▁guaranteed	-11.0256
▁ignore	-11.0257
▁preserved	-11.0263
▁collisional	-11.0264
▁polariton	-11.0266
▁summary	-11.0268
output	-11.0268
▁specify	-11.028
▁neighbors	-11.028
▁favour	-11.0281
▁modulo	-11.0281
▁patch	-11.0281
1/3	-11.0282
▁Quant	-11.0283
Pi	-11.0285
▁CV	-11.0285
▁intelligent	-11.0286
▁32	-11.0286
Upsilon	-11.0289
▁Tensor	-11.0289
▁2011	-11.0295
5}$	-11.0297
▁Spectrum	-11.0298
▁Band	-11.0302
▁Partial	-11.0304
▁CF	-11.0305
▁Sign	-11.0307
▁nanotubes	-11.0307
▁iterations	-11.031
burst	-11.0311
▁topologies	-11.0313
can	-11.0313
▁stored	-11.0317
72	-11.032
▁transmitted	-11.0321
temp	-11.0322
▁stripe	-11.0323
Psi	-11.0329
▁ionic	-11.0332
▁logarithm	-11.0332
scribe	-11.0342
associative	-11.035
▁antennas	-11.036
▁campaign	-11.0361
rou	-11.0362
▁Video	-11.0362
▁lot	-11.0363
▁released	-11.0365
▁transaction	-11.0366
▁Signal	-11.0371
▁distinguished	-11.0371
neighbor	-11.0372
▁supply	-11.0374
dots	-11.0376
▁concentrated	-11.0377
▁bubbles	-11.038
▁intriguing	-11.0381
▁Electro	-11.0384
▁somewhat	-11.0384
▁varied	-11.0385
▁attraction	-11.0392
▁Another	-11.0394
string	-11.0397
tensor	-11.0401
▁renormalized	-11.0402
Bohm	-11.0403
▁readout	-11.0404
▁fewer	-11.0409
▁careful	-11.0409
▁removal	-11.041
insulator	-11.0413
▁launch	-11.0413
▁sometimes	-11.0419
lob	-11.0422
asso	-11.0422
lens	-11.0427
▁accomplish	-11.0429
▁compress	-11.0433
▁substrates	-11.0437
▁deeper	-11.044
Spec	-11.0445
▁attracted	-11.0447
▁accommodate	-11.0449
▁fibre	-11.0451
▁Hardy	-11.0451
▁kink	-11.0454
▁smoothness	-11.0455
▁recoil	-11.0455
▁aperture	-11.0459
▁pumping	-11.0462
▁regardless	-11.0463
Qu	-11.0464
planar	-11.0468
▁contamination	-11.0468
▁Future	-11.0468
▁simplicity	-11.047
3.6	-11.0478
▁Environment	-11.0478
_5	-11.0478
random	-11.0481
▁Motion	-11.049
▁name	-11.0496
▁updates	-11.0498
3+	-11.0499
▁absent	-11.0501
▁optimum	-11.0504
▁neutralino	-11.0513
▁hyperfine	-11.0514
Xi	-11.0517
▁strengthen	-11.0519
▁Waals	-11.0524
▁Edge	-11.0528
▁Knowledge	-11.0529
▁Clusters	-11.0531
▁LMC	-11.0536
breaking	-11.0537
▁selecting	-11.0537
▁transparent	-11.0537
▁rapidity	-11.0538
enberg	-11.054
▁elucidate	-11.0544
▁shrink	-11.0544
network	-11.0545
▁Hodge	-11.0547
▁reversible	-11.0552
▁metallicities	-11.0555
▁interfacial	-11.056
~\	-11.0562
▁irradiation	-11.0564
^2/	-11.0566
▁hypersurface	-11.0569
▁Fermion	-11.0572
▁reality	-11.0572
▁diagnosis	-11.0574
▁Ray	-11.0575
▁contradict	-11.0575
▁surprising	-11.0577
▁distortions	-11.0579
▁limitation	-11.058
lex	-11.0587
oidal	-11.059
▁Center	-11.059
▁Liouville	-11.0602
▁scaled	-11.0602
[\	-11.0603
ney	-11.0609
▁Error	-11.0612
▁Borel	-11.0612
▁intervention	-11.0617
▁Indeed	-11.0621
▁Frobenius	-11.0623
▁documents	-11.0625
▁emerged	-11.0631
▁symbolic	-11.0631
Optim	-11.0632
▁Natural	-11.0638
Time	-11.0638
▁simplify	-11.0641
including	-11.0642
▁cube	-11.0642
▁English	-11.0642
▁triggered	-11.0643
▁hundreds	-11.0649
▁colloidal	-11.0656
▁foliation	-11.0656
arily	-11.0657
▁wormhole	-11.066
▁serious	-11.0663
▁replace	-11.0666
▁volatility	-11.0668
▁conjunction	-11.067
▁exterior	-11.0675
▁nonparametric	-11.0677
▁bracket	-11.068
▁stringent	-11.0696
▁excluded	-11.0697
▁WD	-11.0701
▁enabled	-11.0703
▁BCS	-11.0708
▁raw	-11.071
▁Electronic	-11.0711
1+	-11.0712
▁reionization	-11.0712
▁motor	-11.0713
▁Syn	-11.0717
▁brown	-11.072
▁utilizes	-11.0725
▁shall	-11.0727
▁Examples	-11.0728
▁simulating	-11.073
▁drug	-11.073
▁impossible	-11.0732
place	-11.0732
▁ortho	-11.0737
▁enforce	-11.0737
▁compressible	-11.0744
1.9	-11.0746
▁lightest	-11.0748
▁Extended	-11.075
▁Note	-11.0753
raft	-11.0763
▁vapor	-11.0765
▁remnants	-11.0768
▁2018	-11.0769
▁correlators	-11.077
2.3	-11.0776
▁equally	-11.0779
}^2$	-11.0783
▁originating	-11.0786
▁Evaluation	-11.0789
number	-11.0794
Ex	-11.0794
sampling	-11.0795
Lagrange	-11.08
▁Fock	-11.08
▁Cherenkov	-11.0809
▁subtle	-11.0811
work	-11.0811
through	-11.0816
71	-11.0824
▁Sgr	-11.0825
▁fragment	-11.0829
▁PSR	-11.0831
▁associate	-11.0832
▁El	-11.0832
▁incidence	-11.0833
▁Processes	-11.0834
▁photoemission	-11.0834
▁revealing	-11.0835
▁job	-11.0835
▁Taylor	-11.0837
sorption	-11.0838
▁statistic	-11.0842
▁Resonance	-11.0848
MnO	-11.0848
▁Rydberg	-11.085
functional	-11.0853
▁shifted	-11.0856
integr	-11.0856
optim	-11.0862
▁coexist	-11.0863
▁Applying	-11.0865
▁lag	-11.0868
▁division	-11.0871
▁1.1	-11.0872
▁unseen	-11.0872
series	-11.0873
▁Nash	-11.0873
▁centrality	-11.0874
▁packets	-11.0875
▁bare	-11.0876
media	-11.0877
^-1	-11.0877
▁Pauli	-11.0878
▁Berry	-11.0878
▁2014	-11.0881
Carlo	-11.0884
soft	-11.0885
▁obvious	-11.0887
▁2013	-11.0888
▁paradox	-11.0892
▁mathematics	-11.0894
year	-11.0895
▁flip	-11.0907
▁differentiable	-11.0908
element	-11.0909
▁efficacy	-11.0913
▁0.02	-11.0914
▁multipole	-11.092
800	-11.0923
▁repeat	-11.0925
▁thermoelectric	-11.0925
AdS	-11.0927
▁countries	-11.0941
▁fading	-11.0943
▁Detector	-11.0945
interaction	-11.0946
▁Zeeman	-11.0947
▁lemma	-11.0947
▁$1$	-11.0949
subseteq	-11.095
helio	-11.095
▁climate	-11.0953
Landau	-11.0955
▁care	-11.0956
▁fairness	-11.0957
▁Thermodynamic	-11.0961
vacancy	-11.0964
▁Testing	-11.0965
▁pulsed	-11.0966
▁Zero	-11.0966
▁Gross	-11.0968
=5	-11.0969
mid	-11.0973
how	-11.0976
1.2	-11.0977
ched	-11.0981
▁generically	-11.0982
▁join	-11.0982
▁Continuous	-11.0991
▁fabrication	-11.0993
▁Law	-11.1
▁client	-11.1001
▁attached	-11.1007
▁synthesized	-11.1011
▁symbols	-11.1017
LAT	-11.1017
omb	-11.1019
▁Extra	-11.1022
▁Embedding	-11.1022
▁cooperation	-11.1022
▁infection	-11.1023
▁nanowires	-11.1028
dding	-11.103
▁Program	-11.1035
partite	-11.1037
▁partner	-11.1038
syst	-11.1039
▁Color	-11.1042
▁Normal	-11.1047
▁hint	-11.1047
car	-11.105
▁coordination	-11.1054
nucleus	-11.1056
▁Consider	-11.1057
▁fragments	-11.1057
▁retrieve	-11.1057
▁assigned	-11.1058
▁motivate	-11.1062
aki	-11.1064
▁Inference	-11.1064
▁posed	-11.1067
onomic	-11.1068
▁belongs	-11.1068
▁mismatch	-11.1069
▁geometrically	-11.107
▁plant	-11.1074
▁frustrated	-11.1087
gonal	-11.1087
reversal	-11.1087
▁THz	-11.1087
▁fluorescence	-11.1088
▁spatio	-11.1092
vapor	-11.1094
▁PDF	-11.1096
▁genuine	-11.1099
▁Scaling	-11.1102
▁MRI	-11.1103
▁advance	-11.1103
▁choosing	-11.1104
pet	-11.1113
▁axisymmetric	-11.1116
▁Action	-11.1116
▁relaxed	-11.1117
textbf	-11.1118
▁member	-11.1119
▁frequent	-11.1121
Klein	-11.1126
▁Segmentation	-11.1127
▁nonperturbative	-11.1127
▁technological	-11.113
▁Yet	-11.1133
▁criticality	-11.1135
▁Beam	-11.1139
▁adsorption	-11.1141
▁Clustering	-11.1144
▁navigation	-11.1146
▁meV	-11.1148
▁situ	-11.1149
▁survive	-11.1153
▁kinematical	-11.1153
▁arms	-11.1163
▁dealing	-11.1163
▁perfectly	-11.1163
▁evaporation	-11.1163
▁bending	-11.1168
▁relying	-11.117
optic	-11.117
▁avoiding	-11.117
▁belonging	-11.1171
▁poles	-11.1172
▁codimension	-11.1178
elli	-11.1178
▁1.6	-11.118
▁bootstrap	-11.1183
▁fairly	-11.1184
▁damped	-11.1186
liquid	-11.1186
▁book	-11.1187
▁astronomy	-11.119
▁Maximum	-11.1193
worth	-11.1199
Induced	-11.12
▁countable	-11.1201
▁indicator	-11.1206
▁inflaton	-11.1207
▁Software	-11.1207
▁GaAs	-11.1212
/2$	-11.1222
}_\	-11.1224
▁shortest	-11.1225
▁isotopes	-11.1227
▁homomorphism	-11.1227
▁runtime	-11.1229
bel	-11.123
▁formally	-11.1232
▁CERN	-11.1235
▁birth	-11.1235
map	-11.1238
iness	-11.1238
▁sudden	-11.1246
Goldstone	-11.1246
▁bottleneck	-11.1248
▁CPU	-11.1248
▁Polynomial	-11.1251
▁Variational	-11.1252
mathsf	-11.1255
8}$	-11.1257
▁leaves	-11.1259
▁undergoes	-11.1263
▁Experiment	-11.1265
▁business	-11.1265
▁Element	-11.1266
▁quartic	-11.1272
▁anisotropies	-11.1274
▁Ph	-11.1279
▁US	-11.1285
▁accelerating	-11.1288
main	-11.1288
▁fibration	-11.1294
▁keeping	-11.1297
▁fb	-11.1301
igh	-11.1303
▁music	-11.1304
▁Sequence	-11.1306
_0(	-11.1307
▁proportion	-11.1309
▁suspension	-11.1311
▁ALMA	-11.1313
exchange	-11.1314
▁spinning	-11.1316
▁consecutive	-11.132
▁neighboring	-11.1325
oul	-11.1328
metri	-11.133
▁attenuation	-11.1331
uation	-11.1331
▁intensive	-11.1332
▁periodicity	-11.1332
▁explaining	-11.1335
▁leveraging	-11.134
▁preferences	-11.1348
▁Boundary	-11.1353
▁Taking	-11.1354
▁Loop	-11.1354
▁Killing	-11.1356
▁intersect	-11.1359
▁asset	-11.1361
▁$2\	-11.1369
▁Unfortunately	-11.1372
definite	-11.1372
ancy	-11.1378
bra	-11.1381
++	-11.1382
▁ejection	-11.1386
▁Generative	-11.139
▁CME	-11.1392
▁Microwave	-11.1395
▁superlattice	-11.1395
▁exclusion	-11.1395
▁Hard	-11.1397
▁Giant	-11.1397
▁Memory	-11.1401
sure	-11.1401
▁HERA	-11.1405
▁regret	-11.1406
▁melting	-11.1409
mathscr	-11.1417
▁congruence	-11.1419
solid	-11.1421
1.4	-11.1428
▁manipulate	-11.1429
▁ballistic	-11.1433
▁Key	-11.1435
rotating	-11.1437
▁straight	-11.144
0.15	-11.1441
▁twin	-11.1442
http	-11.1443
spherical	-11.1443
tel	-11.1445
▁pinning	-11.1446
▁War	-11.1446
▁divide	-11.1448
limit	-11.145
odd	-11.1453
▁Rashba	-11.1455
▁downstream	-11.1456
▁batch	-11.1458
▁annotations	-11.1468
precision	-11.1471
moving	-11.1474
▁0.05	-11.1474
dinger	-11.1474
ACS	-11.1475
▁alloys	-11.1475
▁electrodes	-11.1477
▁merge	-11.1493
galactic	-11.1494
▁Cepheid	-11.1494
▁sketch	-11.1494
Markovian	-11.1495
(1+	-11.1496
▁Sloan	-11.1496
2.1	-11.1499
▁Mechanics	-11.15
▁vorticity	-11.15
▁tachyon	-11.1503
▁Inspired	-11.1503
▁entity	-11.1504
LAS	-11.1505
▁coincidence	-11.1507
rotation	-11.1509
▁coloring	-11.1515
▁2008	-11.1516
▁haloes	-11.1518
▁interferometry	-11.152
▁carrying	-11.1523
▁discrimination	-11.1534
▁student	-11.1535
▁Noise	-11.1538
▁illumination	-11.1538
▁Automatic	-11.1539
▁Schrodinger	-11.1545
▁LIGO	-11.1552
▁Fluctuation	-11.1556
▁education	-11.156
▁cache	-11.1564
▁embed	-11.1567
▁figure	-11.1571
▁Programming	-11.1571
▁tradeoff	-11.1571
▁beginning	-11.1572
▁Central	-11.1573
plain	-11.1579
▁occupation	-11.1585
▁debate	-11.1585
▁symbol	-11.1586
water	-11.1592
▁protect	-11.1595
▁corollary	-11.1596
▁Comparing	-11.1596
▁Mode	-11.1597
▁raise	-11.1599
▁Mobile	-11.1602
▁naive	-11.1602
▁regulator	-11.1604
flavor	-11.1605
▁nested	-11.1607
▁unless	-11.1607
▁thousands	-11.1609
DFT	-11.161
▁labeling	-11.161
▁emitters	-11.1613
▁protection	-11.1615
▁conductor	-11.1623
▁Empirical	-11.1626
▁Integral	-11.1626
reciprocal	-11.1629
▁Jet	-11.1633
▁incoherent	-11.1637
iability	-11.1638
▁margin	-11.1639
begin	-11.164
adiabatic	-11.1642
hedra	-11.1643
▁intended	-11.1649
▁lobe	-11.165
▁nine	-11.1651
▁influenced	-11.1655
ssembl	-11.166
resonant	-11.166
▁greedy	-11.1666
▁vacua	-11.1666
▁separating	-11.1668
▁blockchain	-11.1671
motion	-11.1671
▁Oscillation	-11.1671
▁periodically	-11.1676
▁pricing	-11.1679
▁handling	-11.1683
▁NMR	-11.1684
▁histories	-11.1684
▁Distance	-11.1685
▁Dwarf	-11.1688
=1}^	-11.1688
elliptic	-11.1688
▁firm	-11.1694
▁puzzle	-11.1695
▁groupoid	-11.17
disk	-11.17
▁threat	-11.1701
▁tune	-11.1706
▁Case	-11.1706
▁hundred	-11.1709
▁astrophysics	-11.171
prove	-11.1714
▁nucleosynthesis	-11.1718
▁NLO	-11.1718
▁want	-11.1718
luminous	-11.1722
▁magnetically	-11.1722
▁tumor	-11.1725
▁overlapping	-11.173
▁confining	-11.1731
▁habit	-11.1733
▁Perturbation	-11.174
▁gaseous	-11.1744
▁Implications	-11.1745
▁pave	-11.1746
▁inhibit	-11.1747
▁algebraically	-11.1753
▁witness	-11.1755
▁Particular	-11.1757
▁hysteresis	-11.1758
▁destroy	-11.176
▁fulfill	-11.1763
▁triangulation	-11.1768
▁twice	-11.1768
Driven	-11.1769
obscured	-11.177
▁capturing	-11.177
^{4	-11.1774
▁going	-11.1775
RAM	-11.1777
genous	-11.1778
▁Spectroscopy	-11.1781
▁Scalar	-11.1781
▁grand	-11.1783
▁matroid	-11.1784
▁cardinality	-11.1785
▁quantified	-11.1786
▁Probing	-11.1787
friend	-11.1787
molecular	-11.1789
▁preferential	-11.1794
▁sophisticated	-11.1796
▁VLT	-11.1799
▁2009	-11.1805
▁95%	-11.1806
▁thanks	-11.1807
averaged	-11.181
▁Computation	-11.1812
▁discusses	-11.1816
▁LEP	-11.1819
▁diverge	-11.1825
▁donor	-11.1828
▁discriminative	-11.1833
▁infinitesimal	-11.1839
▁Mach	-11.1845
▁Jordan	-11.1846
universal	-11.1849
▁patches	-11.1852
▁approximating	-11.1854
▁Face	-11.1854
▁Hecke	-11.1857
▁Schur	-11.1859
▁daily	-11.1861
▁routine	-11.1863
▁IRAS	-11.1864
▁brightest	-11.1865
▁chip	-11.1868
▁classifying	-11.1874
▁penalty	-11.1874
concave	-11.1877
▁alleviate	-11.1882
junction	-11.1886
▁Twitter	-11.1887
▁unconventional	-11.1894
▁Soft	-11.1895
▁MoS	-11.1905
▁abstraction	-11.1906
▁Wide	-11.1906
▁dephasing	-11.1908
▁Population	-11.1912
1]	-11.1914
▁Cosmology	-11.1923
▁oracle	-11.1923
transitive	-11.1924
(111)	-11.1924
▁European	-11.1931
2.7	-11.1933
▁Improved	-11.1935
▁Selection	-11.1935
▁disentangle	-11.1935
▁maximizing	-11.1937
▁2019	-11.1939
SNR	-11.1939
▁Filter	-11.1948
mol	-11.1949
SFR	-11.1951
▁preference	-11.1951
▁alloy	-11.1952
▁indicated	-11.1954
▁Lorentzian	-11.1958
▁Kolmogorov	-11.1961
▁flight	-11.1965
▁facial	-11.1965
▁delayed	-11.1965
▁superalgebra	-11.1965
_4$	-11.1966
▁squeezed	-11.1967
▁valuation	-11.1971
Comp	-11.1973
▁establishes	-11.1977
▁maximization	-11.198
▁Explicit	-11.1982
▁Singular	-11.1984
▁latitude	-11.1997
ordinate	-11.2006
▁elasticity	-11.2007
▁Herschel	-11.2011
▁fill	-11.2019
geometric	-11.2021
distinguishable	-11.2028
▁Bayes	-11.203
luminosity	-11.2031
split	-11.2033
war	-11.2036
▁lecture	-11.2037
▁absorbing	-11.2038
▁unresolved	-11.2038
▁broader	-11.204
▁middle	-11.2047
▁persistence	-11.205
▁copies	-11.2051
▁Challenge	-11.2053
plasm	-11.2056
▁annotated	-11.2056
▁reflecting	-11.2058
▁Measure	-11.206
▁removing	-11.206
▁manual	-11.2062
▁Parallel	-11.2074
1.3	-11.2075
▁inertia	-11.2077
molecule	-11.2081
▁accumulate	-11.2081
▁store	-11.2084
▁roll	-11.2086
▁mutually	-11.2088
front	-11.2088
▁400	-11.209
=1/2	-11.2091
ivities	-11.2097
▁debris	-11.2101
▁decline	-11.2103
▁collaborative	-11.2104
miss	-11.2108
chron	-11.2109
▁isothermal	-11.2112
▁standing	-11.2112
▁microlensing	-11.2116
▁Secondly	-11.2127
▁constraining	-11.2128
hadron	-11.2129
▁Robot	-11.2132
▁broadcast	-11.2132
▁Crystal	-11.2133
▁Invariant	-11.2134
▁accumulation	-11.2141
▁cyber	-11.2141
▁crack	-11.2144
▁player	-11.2149
▁Graphene	-11.2155
▁positivity	-11.2158
▁sentiment	-11.2162
▁spectrometer	-11.2162
▁WMAP	-11.2163
▁neglected	-11.2164
▁disruption	-11.2165
▁drastically	-11.2165
▁annotation	-11.2168
▁archival	-11.217
▁Virtual	-11.2174
▁radical	-11.2178
▁transparency	-11.2182
▁concentrate	-11.2182
erman	-11.2184
^-\	-11.2185
▁fluctuating	-11.2186
▁compensate	-11.2186
▁rectangular	-11.2189
from	-11.2193
▁consequently	-11.2195
▁Impact	-11.2199
▁Transformer	-11.2201
▁harvest	-11.2203
▁stabilized	-11.2213
▁Radiation	-11.2215
▁traveling	-11.2215
duality	-11.2215
Lie	-11.2217
▁interferometric	-11.2221
life	-11.2223
weak	-11.2227
constrained	-11.2228
▁fuel	-11.2229
▁protoplanetary	-11.223
▁decentralized	-11.2234
period	-11.2236
~1	-11.2238
},\	-11.2246
lon	-11.2249
▁spectrograph	-11.2254
▁Curve	-11.2256
▁precursor	-11.2258
▁descriptor	-11.2258
consuming	-11.2261
▁leptonic	-11.2264
▁tax	-11.2265
▁Dual	-11.2267
▁Coherent	-11.2269
index	-11.2269
location	-11.2271
▁obstruction	-11.2277
exponential	-11.228
▁suite	-11.2282
force	-11.2284
▁Gromov	-11.2285
▁epitaxial	-11.2285
▁biology	-11.2286
▁axes	-11.2291
▁Third	-11.2293
effective	-11.2293
▁compactness	-11.2295
▁heart	-11.2297
▁convergent	-11.2297
▁GPa	-11.2299
▁DFT	-11.2301
▁concurrent	-11.2305
ract	-11.2308
▁exceeding	-11.2308
mbox	-11.2308
▁~10	-11.2308
(2)$	-11.2311
▁gapless	-11.2312
▁fair	-11.2313
▁Frequency	-11.2314
▁Rank	-11.2316
▁recursion	-11.2316
▁poset	-11.2326
▁said	-11.2326
▁edit	-11.2327
▁recall	-11.2329
▁2007	-11.2332
▁2020	-11.2333
▁Mag	-11.2334
▁facilities	-11.2336
▁interlayer	-11.2347
▁Early	-11.2348
▁stopping	-11.2349
Jones	-11.2353
▁Jacobian	-11.2356
equivalent	-11.2372
▁death	-11.2372
▁answering	-11.2373
occ	-11.2375
▁degrade	-11.2376
self	-11.2378
SCA	-11.2378
posing	-11.2385
700	-11.2385
▁portfolio	-11.2385
▁AGB	-11.2387
▁Temporal	-11.2389
▁Complexity	-11.239
▁easier	-11.2397
▁Value	-11.2397
▁Mat	-11.2399
▁deviate	-11.2401
▁3.5	-11.2404
▁mix	-11.2409
▁lost	-11.2412
disperse	-11.2415
▁wake	-11.2416
▁stiffness	-11.2417
▁slip	-11.2424
adi	-11.2425
▁reliably	-11.2429
▁modest	-11.244
▁...	-11.2447
continuous	-11.245
▁Computational	-11.2451
▁Building	-11.2453
▁calibrated	-11.246
▁Computer	-11.2461
▁rigorously	-11.2464
▁skill	-11.2469
▁University	-11.2475
▁slower	-11.248
▁Planet	-11.248
▁quadrature	-11.2481
lag	-11.2483
▁eclipse	-11.2485
▁incremental	-11.2485
minate	-11.2486
▁exhibited	-11.2488
ado	-11.2493
▁transportation	-11.2494
version	-11.2495
magnitude	-11.2496
▁nanowire	-11.2499
decay	-11.25
▁User	-11.25
▁speedup	-11.2501
▁nebulae	-11.2502
▁parametrized	-11.2505
▁identifies	-11.2507
▁Magnet	-11.2512
▁diagonalization	-11.2515
▁chromatic	-11.2515
▁terrestrial	-11.2517
▁loading	-11.2517
▁fabricated	-11.2518
▁confirming	-11.2527
▁pore	-11.2529
lov	-11.253
▁enrichment	-11.2535
▁Laser	-11.2538
▁Pattern	-11.2539
▁rock	-11.2543
▁transferred	-11.2546
onia	-11.2547
▁ultrafast	-11.2547
▁delivery	-11.2547
▁Joint	-11.2549
▁Anomalous	-11.2551
▁hypergeometric	-11.2556
▁glasses	-11.2562
▁Inverse	-11.2566
▁Lac	-11.2568
▁penetration	-11.2569
▁filled	-11.2569
▁reproducing	-11.2573
▁exclude	-11.2575
orthogonal	-11.2579
▁Diffusion	-11.2579
existence	-11.2584
▁Origin	-11.2589
▁ionizing	-11.2591
▁Markovian	-11.2593
▁gapped	-11.2594
▁execute	-11.2597
^{2}$	-11.2599
▁squeezing	-11.2601
▁fracture	-11.2605
2/3	-11.2608
fusion	-11.2613
▁Magneto	-11.2619
bert	-11.2624
▁1.8	-11.263
tuple	-11.2631
▁checking	-11.2632
▁Nambu	-11.2632
▁Kaluza	-11.2632
chalcogenide	-11.2636
▁orbiting	-11.2638
▁Analytic	-11.264
▁unlikely	-11.2643
▁intrinsically	-11.2648
▁dictionary	-11.2652
400	-11.2661
Jacobi	-11.2661
poly	-11.2662
▁honeycomb	-11.2662
▁conformally	-11.2663
▁WIMP	-11.2664
▁LSTM	-11.2666
motive	-11.2668
▁amenable	-11.267
▁locus	-11.2672
▁constructive	-11.2675
▁spintronic	-11.2687
▁Broad	-11.2689
▁cumulative	-11.2695
▁monomial	-11.2695
▁exception	-11.2698
▁discriminate	-11.2703
▁dramatic	-11.2704
▁generalisation	-11.2707
▁cancel	-11.271
▁Novel	-11.2713
▁gradually	-11.2714
▁accrete	-11.2715
▁Artificial	-11.2717
▁owing	-11.2719
▁Galerkin	-11.2719
▁Schwinger	-11.2721
▁sterile	-11.2721
▁90%	-11.2728
▁quantification	-11.273
▁continued	-11.2731
▁encountered	-11.2733
,...,	-11.2735
▁endowed	-11.2736
▁pull	-11.2737
currence	-11.2743
▁iterated	-11.2746
▁freeze	-11.2747
▁Metric	-11.275
▁citation	-11.2754
▁Training	-11.276
enyi	-11.2761
▁Analytical	-11.2764
▁incorrect	-11.2764
1.6	-11.277
neutron	-11.2778
image	-11.2782
▁millisecond	-11.2783
▁polaron	-11.2784
▁genome	-11.2785
▁superconformal	-11.2793
▁Alfv	-11.2794
▁familiar	-11.2797
▁usefulness	-11.2799
▁chapter	-11.2799
lot	-11.2806
▁appropriately	-11.2806
▁compatibility	-11.2806
▁Convergence	-11.281
▁functionality	-11.2811
▁recording	-11.2823
3.5	-11.2827
▁1.7	-11.2827
▁Extreme	-11.2832
oplus	-11.2833
Schwarz	-11.2834
▁linguistic	-11.2834
▁grating	-11.2835
▁translational	-11.2839
▁Wind	-11.2842
▁Ginzburg	-11.2842
▁chirality	-11.2843
▁Conformal	-11.2843
▁bunch	-11.2845
▁revisited	-11.2847
▁dose	-11.285
▁staggered	-11.2851
▁Formula	-11.2852
▁collinear	-11.2858
=0.0	-11.2859
strong	-11.2861
▁Noether	-11.2862
typ	-11.2863
▁Approximate	-11.2863
▁Attention	-11.2868
▁sunspot	-11.287
AST	-11.2874
}_2$	-11.2874
▁Renormalization	-11.2878
baryon	-11.2882
▁superstring	-11.2883
▁2.0	-11.2895
positive	-11.2898
▁dusty	-11.2898
▁living	-11.2901
Newtonian	-11.2907
_1,\	-11.2908
▁Processing	-11.2909
▁facility	-11.2909
▁neighbour	-11.291
▁raised	-11.291
▁Product	-11.2911
▁tropical	-11.2912
▁Plasma	-11.2913
▁Initial	-11.2922
design	-11.2924
▁accepted	-11.2926
▁suppose	-11.2927
▁0.03	-11.293
▁120	-11.2936
partition	-11.2938
▁logistic	-11.2941
augh	-11.2943
▁favorable	-11.2953
▁causality	-11.296
hedron	-11.2961
▁elaborate	-11.2964
▁Inflation	-11.2964
▁Decision	-11.2976
▁pseudogap	-11.2976
▁gained	-11.2978
▁refine	-11.2978
▁arrive	-11.2978
▁reasonably	-11.2984
▁lithium	-11.2985
Bogoliubov	-11.2985
block	-11.2986
hbar	-11.2988
▁spacecraft	-11.2993
ific	-11.2993
▁gyro	-11.2998
▁slab	-11.3005
▁suitably	-11.3008
▁Sensor	-11.3008
▁2006	-11.3009
▁perhaps	-11.3012
▁Decomposition	-11.3014
▁tiling	-11.3015
▁Discovery	-11.3016
▁instant	-11.3023
widetilde	-11.3023
2.0	-11.303
▁manifestation	-11.303
▁Regression	-11.3031
▁multiscale	-11.3033
▁implied	-11.3035
cient	-11.3036
▁2+1	-11.3038
▁photospheric	-11.3041
lig	-11.3043
▁supervision	-11.3044
twist	-11.3049
deformed	-11.3053
▁copy	-11.3059
▁Hierarchical	-11.3061
▁filtration	-11.3067
▁parallax	-11.3067
depth	-11.3069
▁subclass	-11.307
▁upgrade	-11.3081
phrase	-11.3082
MASS	-11.3088
making	-11.3094
▁unclear	-11.3097
collapse	-11.3099
▁tailored	-11.3099
▁Coupled	-11.3101
perp	-11.3101
▁Clifford	-11.3103
▁Structural	-11.3105
▁Sampling	-11.3109
}{2}	-11.3109
Bonnet	-11.3118
▁Cho	-11.3119
▁Depending	-11.312
▁offline	-11.3123
onomy	-11.3124
▁Extension	-11.3128
▁strongest	-11.3129
▁IMF	-11.3134
RIS	-11.3147
▁merit	-11.3154
▁folding	-11.3158
^{0}	-11.3163
▁Nebula	-11.3169
▁interpretable	-11.317
▁stacking	-11.3176
▁Accurate	-11.3184
▁subtraction	-11.3186
▁categorical	-11.3188
▁leakage	-11.3191
▁occurred	-11.3192
decomposable	-11.3193
▁Service	-11.3193
▁Liquid	-11.3193
▁Post	-11.3194
focus	-11.3196
▁eye	-11.3201
▁visibility	-11.3218
▁microstructure	-11.322
▁scope	-11.3222
gravitating	-11.3227
▁BEC	-11.3237
▁Baryon	-11.3238
▁solvent	-11.324
▁Shape	-11.3241
▁seismic	-11.3243
▁stem	-11.3246
present	-11.3251
▁Pseudo	-11.3251
selected	-11.3256
▁opacity	-11.3257
▁Behavior	-11.3259
▁imposing	-11.3264
▁Erd	-11.3266
▁admissible	-11.3266
MRI	-11.3268
▁ambiguity	-11.3272
▁phantom	-11.3274
arXiv	-11.3276
wind	-11.328
▁polarisation	-11.328
10^{-4}	-11.3284
Connect	-11.3285
▁encompass	-11.3285
▁Mapping	-11.3286
crossing	-11.3288
▁forbidden	-11.329
▁chamber	-11.3292
▁magnetar	-11.3292
categor	-11.3293
▁faithful	-11.3294
▁decompose	-11.3302
▁unlabeled	-11.3303
▁Task	-11.3306
effect	-11.3309
▁eclipsing	-11.3326
evolution	-11.3327
▁Floquet	-11.3329
problem	-11.3333
CMB	-11.3334
▁Along	-11.3337
▁50%	-11.3337
▁exposed	-11.3345
▁Fractional	-11.335
dwarf	-11.3357
▁aforementioned	-11.3361
▁upcoming	-11.3361
▁membership	-11.3362
▁impedance	-11.3364
but	-11.3366
▁End	-11.3366
▁Morse	-11.3367
▁hardness	-11.3375
▁conversation	-11.3377
▁asynchronous	-11.3377
▁Localization	-11.338
▁satisfactory	-11.3381
▁Regge	-11.3381
▁Back	-11.3382
▁enjoy	-11.3383
▁comprising	-11.3385
▁refractive	-11.3385
▁reactor	-11.3385
▁developers	-11.3395
▁protostar	-11.3397
▁controllable	-11.3398
quasi	-11.3401
join	-11.3402
[0,	-11.3405
▁Constant	-11.3405
3.0	-11.3406
MSSM	-11.3411
Poisson	-11.3412
▁concern	-11.3412
▁famous	-11.3416
▁emit	-11.3421
▁rotate	-11.3425
▁parties	-11.3425
▁Matching	-11.3438
=6	-11.3439
▁computable	-11.3445
▁North	-11.3449
150	-11.3452
▁nominal	-11.3456
▁coalescence	-11.346
▁reside	-11.3461
▁Algebraic	-11.3462
▁restoration	-11.3462
{2}	-11.3465
▁ellipsoid	-11.3471
▁predominantly	-11.3473
▁chance	-11.348
▁echo	-11.3485
comb	-11.3488
dress	-11.3492
1.8	-11.3494
▁2005	-11.3497
▁months	-11.3497
▁entropic	-11.35
▁causing	-11.35
▁acid	-11.3504
▁Architecture	-11.3504
▁Symmetric	-11.3506
▁instrumental	-11.3507
^0\	-11.3507
▁exit	-11.3511
▁multimodal	-11.3513
▁warped	-11.3514
▁convexity	-11.3514
▁hybridization	-11.3514
▁digit	-11.3516
▁expressive	-11.3517
ionization	-11.3518
{1}{2}	-11.3518
▁Technique	-11.3524
Scale	-11.3524
▁beneficial	-11.3528
▁dimensionless	-11.3532
▁Spectra	-11.3537
▁injected	-11.3548
▁beamforming	-11.3553
▁Atomic	-11.3557
▁modalities	-11.356
▁buffer	-11.3566
generated	-11.3569
▁Access	-11.3571
▁informative	-11.3571
polynomial	-11.3572
▁ocean	-11.3573
▁Bernoulli	-11.3576
▁Probabilistic	-11.3586
▁Collaboration	-11.3595
▁recognize	-11.3598
▁realizing	-11.3609
▁phone	-11.3611
▁martingale	-11.3615
▁immersed	-11.362
▁adopting	-11.3628
▁Rotation	-11.3632
5.5	-11.3635
▁minutes	-11.3638
▁Eddington	-11.364
▁International	-11.364
▁peer	-11.3641
Baxter	-11.3643
TeV	-11.3644
▁Area	-11.3646
▁commuting	-11.3649
▁thread	-11.3656
▁Scheme	-11.3658
▁Brillouin	-11.3669
▁ultimately	-11.367
▁ODE	-11.3673
▁absorbed	-11.3676
▁deposited	-11.3678
▁started	-11.3681
▁guided	-11.3683
▁Identification	-11.3692
Maxwell	-11.3694
▁Transform	-11.3697
▁communicate	-11.3703
▁replacing	-11.3703
conserving	-11.3705
▁popularity	-11.3705
$_{3}$	-11.3721
▁spite	-11.3725
Sym	-11.3725
▁respond	-11.373
▁illustration	-11.3732
^{-\	-11.3736
▁Rabi	-11.3738
shape	-11.3738
▁electrode	-11.3739
▁Sample	-11.374
▁endpoint	-11.374
▁manually	-11.3741
▁dissociation	-11.3741
▁opposed	-11.3746
logarithm	-11.3747
6.5	-11.375
▁Solution	-11.3752
▁Mechanism	-11.3755
▁Link	-11.3755
▁vital	-11.376
Earth	-11.3768
▁moderately	-11.3768
char	-11.377
▁correctness	-11.3774
▁dominance	-11.3775
▁Fokker	-11.3776
▁Toda	-11.3776
▁Spectroscopic	-11.3785
▁blind	-11.3785
▁Square	-11.3787
▁enhancing	-11.3791
▁deuteron	-11.3791
▁apparently	-11.3792
angular	-11.3803
▁roughness	-11.3814
▁fitness	-11.3815
▁clique	-11.3815
studied	-11.3816
▁autoencoder	-11.3819
▁Polarization	-11.3821
SAT	-11.3823
face	-11.3824
▁discrepancies	-11.3826
pressure	-11.3834
▁stay	-11.3839
▁NIR	-11.3845
1.1	-11.3847
▁2004	-11.3849
▁surrogate	-11.3851
▁alphabet	-11.3859
▁insertion	-11.3865
▁Word	-11.3866
▁bipolar	-11.3872
▁Cayley	-11.3876
▁Core	-11.3879
▁adoption	-11.3882
▁insufficient	-11.3883
▁intergalactic	-11.3885
▁Virgo	-11.3888
▁Character	-11.3889
agnostic	-11.3895
▁Overall	-11.3897
▁Prior	-11.3897
lia	-11.3909
▁incoming	-11.391
▁counterexample	-11.3911
▁denoted	-11.3912
category	-11.3912
▁home	-11.3913
controlled	-11.3915
▁XY	-11.3916
changing	-11.3918
▁furthermore	-11.392
▁brighter	-11.3922
▁Kernel	-11.3924
consistency	-11.3924
▁CCD	-11.3927
▁Ground	-11.3933
▁radar	-11.3945
▁foot	-11.3946
▁250	-11.396
▁hyperplane	-11.3962
▁workload	-11.3977
▁Orion	-11.398
▁Influence	-11.398
▁registration	-11.3982
▁Advanced	-11.3985
▁fingerprint	-11.3992
operatorname	-11.3994
▁bacteria	-11.3994
▁register	-11.3994
▁resummation	-11.3996
▁regulation	-11.3999
▁Fundamental	-11.4005
▁Bessel	-11.4006
1.7	-11.4009
predict	-11.4016
▁Schroedinger	-11.4017
▁equatorial	-11.4017
▁night	-11.4019
▁diffractive	-11.4022
skeleton	-11.4024
▁abrupt	-11.4024
enhanced	-11.4025
▁Grassmannian	-11.4025
▁immediate	-11.4026
▁Review	-11.4027
▁Main	-11.4028
▁dialogue	-11.4029
approximation	-11.4034
▁deploy	-11.4035
bounded	-11.4037
▁Media	-11.4045
▁digraph	-11.4049
localization	-11.4053
teen	-11.4055
▁denoising	-11.4057
▁drawing	-11.4062
▁Reconstruction	-11.4066
small	-11.4068
▁White	-11.4068
▁expanded	-11.407
▁Surprisingly	-11.4073
▁exciting	-11.4073
▁crust	-11.4077
▁Work	-11.4082
▁Kac	-11.4088
2.8	-11.4094
▁multipartite	-11.4096
▁trading	-11.4101
positron	-11.4109
Schmidt	-11.4113
▁ensuring	-11.4115
▁immediately	-11.4123
▁conformation	-11.4128
mediated	-11.4129
▁intuition	-11.4132
correlated	-11.4134
quant	-11.4135
▁permanent	-11.4137
near	-11.4137
speed	-11.4139
▁Friedmann	-11.4141
▁alternate	-11.4144
▁frustration	-11.4148
cost	-11.4149
▁battery	-11.4151
colon	-11.4152
▁undergoing	-11.4154
pulse	-11.4155
▁reactive	-11.4156
▁Studies	-11.4165
▁anticipate	-11.4165
▁linewidth	-11.4166
▁divergent	-11.4167
enko	-11.4174
▁avalanche	-11.4174
▁utilization	-11.4177
▁resolving	-11.4177
▁seesaw	-11.4179
Characterization	-11.4182
▁hinder	-11.4184
input	-11.4184
▁entropies	-11.4189
▁pilot	-11.4192
▁GUT	-11.4194
▁thermalization	-11.4194
▁innovation	-11.4198
▁remark	-11.4201
▁Alternative	-11.4203
boundary	-11.4207
▁warp	-11.4218
▁segregation	-11.4229
SGD	-11.4235
▁Development	-11.4236
▁Remarkably	-11.4238
singlet	-11.4241
▁pandemic	-11.4241
▁charging	-11.4248
▁commutator	-11.4253
▁Namely	-11.426
▁Existence	-11.4262
▁Nuclei	-11.4267
▁Layer	-11.4269
▁parametr	-11.4273
▁Complete	-11.4279
▁Chinese	-11.4284
▁Uncertainty	-11.4284
▁nice	-11.4284
apped	-11.4289
▁dominating	-11.4291
▁Andreev	-11.4293
▁attacker	-11.4296
Dicke	-11.4298
glass	-11.4308
▁notably	-11.4312
▁claimed	-11.4317
Helmholtz	-11.432
▁Support	-11.432
▁cumulant	-11.4322
▁encourage	-11.4322
▁accept	-11.4328
▁fission	-11.4329
compatible	-11.4333
Mpc	-11.4335
Agent	-11.434
construct	-11.4341
▁nonlinearities	-11.4345
▁held	-11.4346
▁supergiant	-11.4346
▁decomposed	-11.4347
▁Recurrent	-11.4347
simple	-11.435
▁adversary	-11.4351
amplitude	-11.4357
▁lenses	-11.4362
coherent	-11.4366
▁prefer	-11.4376
▁Though	-11.4386
vertex	-11.4389
shock	-11.4396
▁Pulsar	-11.4397
▁leave	-11.4404
short	-11.4411
▁Lebesgue	-11.4411
▁teacher	-11.4411
mixing	-11.4416
▁inhomogeneities	-11.4419
▁morphologies	-11.4421
▁synchronous	-11.4421
▁moreover	-11.4422
▁neglect	-11.4424
▁meteor	-11.4426
▁Python	-11.4428
▁monotonicity	-11.4431
▁pointwise	-11.4437
entropy	-11.4438
▁Log	-11.444
▁planned	-11.4441
▁admitting	-11.4444
▁transversal	-11.4445
▁sliding	-11.4446
▁2003	-11.4448
▁widespread	-11.446
▁Index	-11.4466
▁postulate	-11.4467
▁diode	-11.4475
▁visit	-11.4487
▁Rule	-11.4487
▁20%	-11.4489
▁Ensemble	-11.4489
▁Reduction	-11.449
▁photosphere	-11.4491
▁gave	-11.4492
▁Role	-11.4494
▁Cohen	-11.4496
▁semisimple	-11.4498
▁Dense	-11.4503
▁consumer	-11.4503
change	-11.4513
electro	-11.452
conformal	-11.4521
▁placement	-11.4521
▁involution	-11.4523
▁Dust	-11.453
▁compressive	-11.4536
▁distinctive	-11.4536
▁anchor	-11.454
▁Construction	-11.4543
▁Plane	-11.4546
▁boron	-11.4555
transfer	-11.4561
horizon	-11.4563
▁Formal	-11.4567
flux	-11.4567
▁isotopic	-11.4575
▁optimisation	-11.4575
▁Mixed	-11.4585
▁acceptable	-11.4589
spectrum	-11.4594
▁endomorphism	-11.4597
0.05	-11.4599
▁settle	-11.4599
▁astrometric	-11.4602
▁stratified	-11.4607
▁Gold	-11.461
▁episode	-11.4612
algebraic	-11.4615
▁minimax	-11.4619
▁discontinuity	-11.462
constant	-11.4621
▁probable	-11.4627
▁QPO	-11.4629
▁Faraday	-11.4632
infinite	-11.4632
PIC	-11.4638
▁summation	-11.4642
tuned	-11.4644
lapse	-11.4649
▁advection	-11.4654
genesis	-11.4657
▁Eigen	-11.4659
assembled	-11.466
▁century	-11.4662
▁photoproduction	-11.4664
▁conjugacy	-11.4679
▁centralized	-11.4684
▁superiority	-11.4687
▁tracing	-11.4687
▁secular	-11.469
▁Fluid	-11.4691
▁Tracking	-11.4692
▁magnetosphere	-11.4693
▁Vehicle	-11.4704
▁wealth	-11.4706
▁generalise	-11.4709
▁pedestrian	-11.4714
determined	-11.4719
▁IceCube	-11.4719
polymer	-11.4726
▁Periodic	-11.4727
▁instruction	-11.473
metallicity	-11.4732
▁binomial	-11.4733
▁malicious	-11.4744
▁Violation	-11.4749
▁cuprate	-11.476
Dependent	-11.4764
▁decoupled	-11.4766
▁microscope	-11.478
▁Poincare	-11.4781
detection	-11.4784
situ	-11.4785
▁Force	-11.479
▁Measuring	-11.4804
▁Heat	-11.4812
lateral	-11.4818
▁recognized	-11.4822
▁Camera	-11.4822
ipping	-11.4824
▁planetesimal	-11.4827
▁reddening	-11.4827
▁NLP	-11.4833
7.5	-11.4834
▁Manifold	-11.4835
▁progression	-11.4836
▁billion	-11.4837
▁pruning	-11.484
▁Halo	-11.4842
balanced	-11.4846
▁spatiotemporal	-11.4848
▁pick	-11.4856
style	-11.4858
▁burning	-11.4863
convolution	-11.4868
nomial	-11.4869
▁Redshift	-11.4873
▁leaving	-11.4873
▁Nature	-11.4875
▁brought	-11.4875
▁monodromy	-11.4875
oxy	-11.4878
▁efficiencies	-11.488
▁stresses	-11.4883
▁skin	-11.4883
▁tendency	-11.4887
▁disrupt	-11.4887
▁inverted	-11.4891
uller	-11.4895
▁synthesize	-11.4899
▁drawback	-11.4906
▁occupied	-11.4908
▁Electromagnetic	-11.4909
▁repair	-11.491
species	-11.4914
Hubbard	-11.4922
▁Loss	-11.4923
osis	-11.4929
0.01	-11.493
▁Bianchi	-11.4931
▁examining	-11.4944
▁inherit	-11.4944
▁Modelling	-11.4955
▁conical	-11.4955
▁Dataset	-11.4955
aided	-11.4956
▁discipline	-11.4957
[0,1]	-11.4958
▁Aharonov	-11.4962
▁Feedback	-11.4964
dipole	-11.4966
▁octa	-11.4966
▁spurious	-11.4969
▁entail	-11.4971
▁bolometric	-11.4975
▁tower	-11.4979
integral	-11.4982
▁Simultaneous	-11.4987
▁ejected	-11.4987
rapidity	-11.4992
characterisation	-11.4992
▁colliding	-11.4992
Gaussianity	-11.4994
▁Fermilab	-11.4996
antiquark	-11.5007
▁superpotential	-11.5008
▁layout	-11.5008
▁boundedness	-11.501
▁guidance	-11.501
house	-11.5011
analysis	-11.5015
▁nanotube	-11.5018
integer	-11.502
▁isolation	-11.5024
▁World	-11.5026
▁interpolate	-11.5026
tolerant	-11.5031
LHC	-11.5034
▁converse	-11.5039
hyper	-11.5041
▁mock	-11.5056
▁semileptonic	-11.5062
▁severely	-11.5063
▁Automated	-11.507
▁CIFAR	-11.5072
▁Traditional	-11.5083
▁unveil	-11.5083
▁ferromagnetism	-11.5087
▁Component	-11.5098
▁Breaking	-11.5101
▁Wolf	-11.5101
▁Chemical	-11.5103
▁BRST	-11.5104
error	-11.5105
▁Coxeter	-11.5106
▁teleportation	-11.5106
▁slight	-11.511
▁Without	-11.5112
▁surrounded	-11.5114
▁heterotic	-11.5116
▁Bio	-11.5118
▁corpora	-11.5119
▁kilo	-11.5119
giant	-11.5121
▁eruption	-11.5122
GaAs	-11.5124
▁distorted	-11.5127
▁defense	-11.5127
▁focal	-11.513
▁Together	-11.5132
difference	-11.5135
▁Abell	-11.5136
▁cardinal	-11.5136
▁spheroidal	-11.5137
▁proposition	-11.5145
▁reductive	-11.5148
Bbb	-11.515
▁workflow	-11.5151
▁scientists	-11.5153
▁heavier	-11.5156
3.3	-11.5157
▁Combined	-11.5163
turn	-11.5164
▁Unsupervised	-11.5168
region	-11.5169
VAE	-11.5171
▁stereo	-11.5171
MeV	-11.5171
▁versatile	-11.5174
▁Meanwhile	-11.5176
▁bijection	-11.5176
▁abundant	-11.5182
▁billiard	-11.5182
▁Interface	-11.5185
▁uniaxial	-11.5188
GHz	-11.5189
▁Interference	-11.5192
▁CDF	-11.5195
▁semidefinite	-11.5195
multiple	-11.5197
▁fifth	-11.5197
4.2	-11.5201
▁Variation	-11.5206
▁autocorrelation	-11.5206
check	-11.5213
▁Improving	-11.5224
central	-11.5229
▁contributing	-11.5229
▁Attack	-11.5229
▁Smart	-11.5229
▁hierarchies	-11.5234
▁Wiener	-11.5234
operator	-11.5243
▁paid	-11.5245
metallic	-11.5247
▁Ramsey	-11.525
▁termination	-11.5252
Walker	-11.5252
crystalline	-11.5253
▁2002	-11.5255
ealing	-11.5257
▁speculate	-11.5258
▁implication	-11.5278
▁Off	-11.5281
▁blend	-11.5285
categories	-11.5287
integrable	-11.5289
boldsymbol	-11.5292
▁extrapolate	-11.5298
▁Corona	-11.5299
▁syntactic	-11.5305
▁amplifier	-11.5305
3.4	-11.5312
▁circulation	-11.5313
▁Smooth	-11.5316
(10)	-11.5316
polarization	-11.5325
▁Stream	-11.5327
pillar	-11.5331
▁Causal	-11.5335
▁border	-11.5337
▁gender	-11.5348
^{1/2}	-11.5351
exact	-11.5355
▁Estimate	-11.5359
▁isotope	-11.5361
▁Statistics	-11.5361
▁discharge	-11.5363
▁Superconducting	-11.5364
▁deflection	-11.5369
▁Expansion	-11.5372
▁adjustment	-11.5373
▁regulate	-11.5375
▁nitride	-11.5377
▁Branch	-11.5377
▁initiated	-11.538
▁virus	-11.538
▁ultimate	-11.5382
▁reformulate	-11.5383
▁evident	-11.5391
▁helpful	-11.5393
▁Grid	-11.5394
▁distinction	-11.5396
ifiable	-11.5396
▁perturb	-11.5397
▁cities	-11.5403
▁hull	-11.5404
▁hydrostatic	-11.5404
ferromagnet	-11.5406
delay	-11.5409
▁stratification	-11.5415
▁Radiative	-11.5417
▁Supersymmetry	-11.5419
▁morphisms	-11.5425
▁undirected	-11.5428
QKD	-11.543
▁augment	-11.543
acoustic	-11.5431
▁tetragonal	-11.5436
▁terahertz	-11.5447
▁session	-11.5447
▁Artin	-11.5447
▁EEG	-11.5455
homology	-11.5458
▁Stable	-11.5458
carbon	-11.5463
▁VLBI	-11.5471
▁Response	-11.5479
▁imprint	-11.5499
Select	-11.55
▁acceptance	-11.5505
▁backbone	-11.5509
▁blood	-11.5514
▁Kinetic	-11.5514
Robertson	-11.552
4.0	-11.5521
▁archive	-11.5522
target	-11.5523
▁carries	-11.5523
owski	-11.5526
▁shaping	-11.5528
voltage	-11.5529
001	-11.5537
▁differentiation	-11.5539
crit	-11.5539
▁Finding	-11.5544
▁Atom	-11.5545
▁Detecting	-11.5547
▁Translation	-11.5548
▁programme	-11.5552
▁Transformation	-11.5561
▁maxima	-11.5564
▁invoke	-11.5566
▁Synthesis	-11.5569
Aware	-11.5569
▁revolution	-11.5573
drop	-11.5575
▁optomechanical	-11.5577
▁Kalman	-11.5577
anov	-11.5577
▁metasurface	-11.5578
objective	-11.5598
▁Potts	-11.5601
▁Convex	-11.5604
Yan	-11.5609
▁Lastly	-11.5612
(001)	-11.5612
Integr	-11.5613
▁kick	-11.5615
▁Speech	-11.5618
▁meshes	-11.5621
▁automaton	-11.5623
▁profit	-11.5624
▁Solving	-11.5626
orientable	-11.5635
curvature	-11.5639
▁vulnerable	-11.5639
▁payoff	-11.5644
▁combinatorics	-11.5659
▁prohibit	-11.5661
▁invertible	-11.5661
MHD	-11.5664
10^{-5}	-11.5665
rink	-11.5682
▁gravi	-11.5683
▁corroborate	-11.5683
▁ImageNet	-11.5685
900	-11.5689
▁balancing	-11.5697
▁congestion	-11.5697
population	-11.5702
▁FPGA	-11.5705
▁ridge	-11.5705
LSTM	-11.5705
course	-11.5706
▁Propagation	-11.5711
heavy	-11.5714
▁Typical	-11.5714
▁Transmission	-11.5725
▁Curie	-11.5728
▁necessity	-11.5733
▁engage	-11.5736
▁Keck	-11.574
▁authentication	-11.5741
▁Hessian	-11.5741
▁proxy	-11.5741
chromo	-11.5748
▁extrinsic	-11.575
▁Elliptic	-11.575
▁excitonic	-11.5753
RPA	-11.5753
GRA	-11.5754
▁Cycle	-11.5758
filling	-11.5758
▁encryption	-11.5766
strand	-11.5772
▁investment	-11.5774
▁academic	-11.578
▁Grothendieck	-11.5791
▁Superconductor	-11.5791
▁Between	-11.5794
Supervised	-11.5798
▁Quantitative	-11.5811
object	-11.5813
▁journal	-11.5814
▁besides	-11.5814
▁departure	-11.5816
▁closest	-11.582
▁photoionization	-11.582
kpc	-11.5821
▁neighbourhood	-11.5828
▁redundancy	-11.5836
▁tolerance	-11.5842
pixel	-11.5846
▁Water	-11.5847
▁coincident	-11.585
Salpeter	-11.5853
OFDM	-11.5868
▁VLA	-11.5869
▁destination	-11.5869
dovich	-11.5869
▁doubling	-11.5872
▁Skyrme	-11.5872
▁pitch	-11.5874
▁multiplicities	-11.5875
▁conform	-11.5876
▁Flux	-11.5878
5.0	-11.5879
▁secrecy	-11.5886
FeAs	-11.5891
▁Mathematical	-11.5893
▁Cartesian	-11.5895
MAP	-11.5899
▁proposing	-11.5899
▁cyclotron	-11.5912
rail	-11.5917
▁Resource	-11.5923
therapy	-11.5938
▁Exploring	-11.5943
▁Quantization	-11.5945
▁protostellar	-11.5949
crypt	-11.595
asymptotic	-11.5956
▁grasp	-11.5957
▁enlarge	-11.596
▁Accretion	-11.5962
▁Mixing	-11.5963
▁vacancies	-11.5971
▁SMBH	-11.5973
filter	-11.5976
▁invest	-11.5985
fidelity	-11.5987
radiance	-11.5994
▁Unified	-11.5996
▁quantile	-11.5997
▁continua	-11.6
▁coset	-11.6009
▁activated	-11.6011
▁arcmin	-11.602
WISE	-11.6025
control	-11.6026
▁Aims	-11.603
Hilbert	-11.603
▁accordance	-11.6039
▁femtosecond	-11.6039
anonym	-11.6039
packet	-11.6042
▁southern	-11.6042
▁auction	-11.6045
▁Transient	-11.6046
performance	-11.6046
▁Hidden	-11.6059
▁Shannon	-11.6062
▁Question	-11.6065
scope	-11.6067
▁Upper	-11.6068
▁intermittent	-11.607
▁circumstances	-11.6076
▁bimodal	-11.6077
▁unconstrained	-11.6081
▁Hydrodynamic	-11.6082
▁slot	-11.6093
threshold	-11.6094
▁Material	-11.6096
▁homeomorphism	-11.6105
3.2	-11.6107
▁psycho	-11.6114
▁tangential	-11.6116
▁percentage	-11.6117
▁uncorrelated	-11.6118
▁underestimate	-11.6122
gradient	-11.6123
▁caching	-11.6143
▁collisionless	-11.6144
▁holonomy	-11.6148
▁Catalog	-11.6148
▁spirit	-11.6151
▁hair	-11.6153
▁default	-11.6157
luminescence	-11.6158
triplet	-11.6159
▁compete	-11.616
▁Medium	-11.6168
▁supercritical	-11.6171
▁earthquake	-11.6174
▁Pareto	-11.6177
▁Security	-11.618
▁Anisotropic	-11.6183
▁powder	-11.6183
Yang	-11.6184
cellular	-11.6185
reference	-11.6185
cross	-11.6186
▁trait	-11.6192
▁National	-11.6192
▁antisymmetric	-11.6192
▁Detailed	-11.6194
▁ROSAT	-11.6194
▁Bragg	-11.6197
▁website	-11.6204
▁primal	-11.6209
▁elimination	-11.6217
▁enumeration	-11.6217
▁elusive	-11.622
▁copper	-11.622
▁Horizon	-11.6223
$_6$	-11.6231
configurable	-11.6241
▁Contrary	-11.6244
▁bag	-11.6246
▁Analog	-11.6248
▁textual	-11.6249
▁Device	-11.6249
▁bounce	-11.6252
photo	-11.6255
▁collapsing	-11.6255
inspired	-11.6257
unch	-11.6265
▁viscoelastic	-11.6281
▁Weighted	-11.6282
▁dilepton	-11.6282
▁2001	-11.6284
▁Growth	-11.6284
▁Series	-11.6286
▁silicate	-11.6288
▁analysing	-11.629
▁revised	-11.6296
▁salt	-11.6297
▁distillation	-11.6298
tube	-11.6304
track	-11.6306
▁Privacy	-11.6308
▁compromise	-11.6311
▁swarm	-11.6311
▁flaring	-11.6311
dark	-11.632
chromatic	-11.6322
▁Google	-11.6331
FWHM	-11.634
▁Common	-11.634
▁indicative	-11.634
▁unconditional	-11.634
MIMO	-11.6344
▁Coding	-11.6344
excitation	-11.6357
▁CKM	-11.6358
▁rising	-11.6359
▁lose	-11.6362
▁Management	-11.6364
▁precipit	-11.6367
▁intractable	-11.6373
▁monotonically	-11.6375
▁discriminator	-11.6378
▁solitary	-11.6378
3.7	-11.638
▁redundant	-11.6381
▁zigzag	-11.6384
renormalizable	-11.6393
▁compensation	-11.6396
▁Term	-11.6401
▁tentative	-11.6402
▁charmonium	-11.6406
▁discriminant	-11.6417
▁writing	-11.6423
▁circumvent	-11.6424
bond	-11.6424
▁avenue	-11.6429
▁updating	-11.6429
(1,1)	-11.6431
▁locate	-11.6437
▁Meson	-11.6443
▁compactified	-11.6454
▁Painlev	-11.6458
dominant	-11.6462
Rosen	-11.6464
▁bump	-11.647
▁Probe	-11.6476
▁Modified	-11.6484
▁unchanged	-11.6488
▁Lyrae	-11.6488
▁Moment	-11.6489
ratio	-11.6493
▁Hermite	-11.6494
▁outstanding	-11.6501
▁increment	-11.6502
▁north	-11.6505
▁Elastic	-11.6506
▁ternary	-11.6518
▁slit	-11.6529
▁multifractal	-11.6536
▁Things	-11.6556
▁capillary	-11.6557
▁cosmologies	-11.6557
Boost	-11.6557
▁leak	-11.6562
maximal	-11.657
▁tiny	-11.6573
character	-11.6579
▁schema	-11.6582
▁exhaustive	-11.659
▁controllability	-11.659
▁Quality	-11.659
▁quaternion	-11.6591
▁Finsler	-11.6593
▁Carbon	-11.6593
▁Quasar	-11.6599
algebroid	-11.6605
▁itinerant	-11.6605
▁salient	-11.6605
▁Picard	-11.6605
IoT	-11.6609
▁German	-11.6614
typical	-11.6617
▁correlator	-11.6617
▁sweep	-11.662
medium	-11.6625
▁monomer	-11.6628
adaptive	-11.6634
▁Brane	-11.6635
▁everywhere	-11.6636
▁wrong	-11.6638
▁atomistic	-11.664
▁innovative	-11.6653
▁cryogenic	-11.666
▁proximal	-11.666
large	-11.666
▁elongated	-11.6666
▁parsing	-11.667
Riemannian	-11.6671
▁enormous	-11.6672
▁injective	-11.6684
▁wavefront	-11.6686
▁appealing	-11.6687
▁confront	-11.669
▁Holographic	-11.669
▁worse	-11.6698
▁Interacting	-11.6699
▁operad	-11.6704
interpretability	-11.6704
interpret	-11.6714
▁discoveries	-11.6718
▁Dependence	-11.673
▁libraries	-11.6736
▁grammar	-11.6739
▁Lepton	-11.6739
▁1998	-11.6739
▁alkali	-11.674
pseudo	-11.676
▁Toeplitz	-11.6763
▁Duality	-11.6764
colour	-11.6766
▁blockade	-11.677
▁diminish	-11.6772
▁wild	-11.6779
deterministic	-11.6785
▁Precision	-11.6791
▁differentiate	-11.6792
double	-11.6794
▁elegant	-11.6797
▁quintessence	-11.6797
matrices	-11.6803
▁Volume	-11.6811
_1,...,	-11.6811
Free	-11.6811
▁healthcare	-11.6815
▁Diagram	-11.6819
Dirac	-11.6819
▁kHz	-11.6832
likelihood	-11.6841
▁downlink	-11.6847
▁domination	-11.6852
▁Exponential	-11.6853
▁Levi	-11.6855
setminus	-11.6862
▁Investigation	-11.6865
▁afford	-11.6865
▁lane	-11.6866
▁hemisphere	-11.6868
hotoluminescence	-11.6869
3.1	-11.6871
▁apparatus	-11.688
▁strategic	-11.6883
▁fire	-11.6886
Gluon	-11.6887
Teller	-11.6889
▁Change	-11.689
▁Engineering	-11.6896
▁waiting	-11.6905
▁green	-11.6908
▁school	-11.6911
▁you	-11.6912
▁irreversible	-11.6918
Macaulay	-11.6921
▁things	-11.6921
destructive	-11.6924
▁Concept	-11.6929
▁Sensing	-11.6934
▁Minimum	-11.6936
▁Vacuum	-11.6936
▁adjacency	-11.6936
▁Risk	-11.6943
170	-11.6949
▁Pass	-11.695
▁aerial	-11.6951
▁Probability	-11.6952
▁LISA	-11.6952
▁simplification	-11.6955
Order	-11.6957
▁replacement	-11.6961
▁vice	-11.6963
▁ecosystem	-11.6964
▁purity	-11.6977
1000	-11.6977
selection	-11.6985
10^{-6}	-11.6988
▁wavenumber	-11.6989
▁Eulerian	-11.6991
antenna	-11.6994
▁sheaf	-11.6999
▁Virasoro	-11.7002
▁mention	-11.7002
▁companies	-11.7005
Nordstr	-11.7008
▁Gorenstein	-11.7011
▁gluino	-11.7015
▁Relative	-11.7015
▁monochromatic	-11.7028
▁Glass	-11.7028
▁basin	-11.703
▁Polyakov	-11.703
gaussian	-11.7033
▁gravitino	-11.7033
AGB	-11.7036
granul	-11.704
▁susceptible	-11.704
▁Fusion	-11.704
▁homological	-11.7041
Luminosity	-11.7043
▁maintenance	-11.7043
▁Especially	-11.7052
▁Suppose	-11.7062
▁voice	-11.7071
▁dictat	-11.7075
▁bandgap	-11.7077
▁guidelines	-11.7078
Body	-11.708
▁illustrative	-11.7081
volatile	-11.709
▁Label	-11.7102
▁landmark	-11.7103
▁Ratio	-11.7109
contact	-11.7115
▁hypothetical	-11.7119
0.10	-11.712
▁Momentum	-11.7127
▁Difference	-11.7135
▁Harmonic	-11.7135
▁reminiscent	-11.7141
8.5	-11.7144
established	-11.7144
▁Autonomous	-11.7144
▁reconcile	-11.7144
▁society	-11.7147
▁succeed	-11.7147
arcsecond	-11.715
coherence	-11.7159
▁flash	-11.716
_{13}	-11.7165
▁manuscript	-11.7167
▁trigonometric	-11.7173
Pitaevskii	-11.7189
▁frozen	-11.7189
film	-11.7191
carrier	-11.7202
▁blur	-11.7208
▁Seiberg	-11.7211
▁irrelevant	-11.7211
▁1999	-11.722
▁loose	-11.7231
▁unstructured	-11.7244
octet	-11.7247
▁prospect	-11.7249
reversibility	-11.7249
▁manufacturing	-11.725
▁photoelectron	-11.7251
▁justify	-11.7252
▁ALICE	-11.7253
structural	-11.7254
▁integrator	-11.726
Field	-11.727
▁modifies	-11.7276
▁Exchange	-11.7277
▁Like	-11.7279
▁swap	-11.728
▁diffusivity	-11.7282
▁Hetero	-11.7284
▁SYM	-11.7289
▁melt	-11.7298
▁chromospheric	-11.7298
▁emitter	-11.731
Nucleon	-11.7318
peripheral	-11.7321
▁labelled	-11.7325
▁IEEE	-11.7331
▁histogram	-11.7337
▁unpolarized	-11.7338
▁INTEGRAL	-11.734
▁Java	-11.7341
device	-11.7342
discrete	-11.7342
▁Hydrogen	-11.7347
▁Determination	-11.7347
▁intention	-11.7352
▁abnormal	-11.7357
▁irrespective	-11.736
▁cryptographic	-11.737
▁Rapid	-11.737
▁View	-11.737
▁Laboratory	-11.7379
realistic	-11.7381
▁truly	-11.7383
▁practitioners	-11.7386
▁prototypical	-11.7386
corrected	-11.7388
▁Systematic	-11.7409
SDEs	-11.7411
▁destruction	-11.7419
▁Uniform	-11.7419
▁sensitivities	-11.7422
▁Explorer	-11.7425
▁Kitaev	-11.7425
▁voting	-11.7425
▁30%	-11.7426
▁international	-11.7429
soliton	-11.7431
3.8	-11.7439
resonance	-11.7441
▁quaternionic	-11.7441
▁cryptography	-11.7442
▁observatory	-11.7442
▁infected	-11.7452
▁Intelligence	-11.7455
▁magnification	-11.7455
burn	-11.7458
▁Tauri	-11.7459
▁Constrained	-11.7461
▁Anomaly	-11.7471
▁impulse	-11.7472
▁Neutral	-11.7474
▁Absorption	-11.7475
topological	-11.7483
▁Velocity	-11.7488
▁Cyg	-11.7497
▁Perspective	-11.7504
▁Modern	-11.7506
▁Riesz	-11.7511
2.9	-11.7513
configuration	-11.7514
▁preservation	-11.7524
▁stiff	-11.7528
▁surpass	-11.7528
▁tagging	-11.7529
▁Floer	-11.7534
▁Collective	-11.7537
▁repetition	-11.7537
▁scintillator	-11.7541
▁semiconducting	-11.7544
invasive	-11.7551
▁Reissner	-11.7554
▁jamming	-11.7557
▁examination	-11.756
▁mitigation	-11.756
▁STAR	-11.7567
▁irradiated	-11.757
▁stretching	-11.7574
▁northern	-11.7581
child	-11.7584
▁centroid	-11.7584
▁bug	-11.7589
detector	-11.7591
▁Brown	-11.7592
Abridged	-11.7601
written	-11.7601
backward	-11.761
Penrose	-11.761
▁Target	-11.7614
currency	-11.7614
▁Sequential	-11.7617
▁Counter	-11.762
▁resolvent	-11.762
▁Those	-11.7623
▁provably	-11.7624
▁chord	-11.763
▁Fibonacci	-11.763
▁WASP	-11.763
▁Angular	-11.7637
Infeld	-11.7654
▁Crab	-11.766
▁guiding	-11.7664
111	-11.7666
▁discord	-11.767
▁utilis	-11.7671
▁biomedical	-11.7681
▁Delay	-11.7685
450	-11.7687
possibly	-11.7688
▁Flavor	-11.7691
filled	-11.7698
▁teaching	-11.7701
▁unexplored	-11.7701
▁incentive	-11.7704
▁deconfinement	-11.7708
material	-11.7712
▁gravitation	-11.7713
▁Exploiting	-11.7714
▁deficit	-11.7718
▁Acoustic	-11.7721
▁radiate	-11.7721
▁optoelectronic	-11.7724
▁Connection	-11.7725
▁crypto	-11.7733
▁Protocol	-11.7741
▁constitutive	-11.7745
▁political	-11.7745
▁Condensate	-11.7748
▁surgery	-11.7755
▁Description	-11.7755
▁Electroweak	-11.7765
▁asked	-11.7778
▁disconnected	-11.778
bearing	-11.778
▁transcription	-11.7782
▁Whereas	-11.7789
valley	-11.7789
▁Topology	-11.7796
▁Arch	-11.7803
▁descend	-11.7809
response	-11.7811
▁Matrices	-11.7819
▁capacities	-11.7819
▁cohomological	-11.7826
▁Heterogeneous	-11.7833
▁footprint	-11.7833
▁degeneracies	-11.7836
quadratic	-11.7839
▁Positive	-11.784
▁SrTiO	-11.7844
_{-0.0	-11.7851
▁Spectrograph	-11.7867
▁Extraction	-11.7871
collinear	-11.7877
▁Planning	-11.7877
▁reformulation	-11.7898
▁capacitance	-11.7905
▁Resonant	-11.7905
chiral	-11.7905
▁Auger	-11.7908
▁Kelvin	-11.7908
▁(2010)	-11.7919
▁puncture	-11.7919
▁satisfaction	-11.7932
▁polycrystalline	-11.7933
▁motif	-11.7943
▁glueball	-11.7946
nearest	-11.7949
neutral	-11.7949
▁dilation	-11.795
▁quick	-11.7951
▁wedge	-11.7962
abridged	-11.7962
initio	-11.7963
▁nevertheless	-11.7967
▁lesion	-11.7976
▁profound	-11.7977
efficiency	-11.7977
derivative	-11.7988
▁versa	-11.7989
▁(2011)	-11.7991
▁tremendous	-11.7991
▁celebrated	-11.7995
▁Alice	-11.8
▁allocate	-11.8001
creat	-11.8002
▁scintillation	-11.8008
▁altitude	-11.8008
▁kept	-11.8009
▁Radial	-11.8009
▁bispectrum	-11.8011
▁summarization	-11.8012
▁occlusion	-11.8019
▁Characteristic	-11.8027
▁Neuro	-11.8028
approximate	-11.8028
galaxy	-11.803
major	-11.803
integrated	-11.8033
▁Partition	-11.8041
methyl	-11.8044
▁Shock	-11.8045
▁Feshbach	-11.8047
▁Specific	-11.8047
▁gradual	-11.8052
▁metrology	-11.8054
4.3	-11.8054
▁inspection	-11.8058
▁advancement	-11.8059
▁Balmer	-11.8061
▁Orthogonal	-11.8075
▁synchronized	-11.8075
▁piezoelectric	-11.8078
▁Predicting	-11.8085
▁initiate	-11.8085
damped	-11.8087
▁Thanks	-11.8092
▁featuring	-11.8092
▁multiply	-11.8096
▁seemingly	-11.8103
▁disagreement	-11.8112
catalytic	-11.8113
^{+0.0	-11.8115
▁separability	-11.8117
Littlewood	-11.8124
▁Average	-11.8124
▁ontology	-11.8124
_{1/2}	-11.8127
conversion	-11.8131
▁Spontaneous	-11.8134
▁Excitation	-11.8138
pnictide	-11.8155
▁Bernstein	-11.8155
▁perceptual	-11.8155
affine	-11.8156
▁Estimating	-11.8159
▁hazard	-11.8162
▁Planetary	-11.8166
▁Spherical	-11.8166
▁Every	-11.817
▁Blue	-11.8173
▁Centaur	-11.818
propagation	-11.8185
▁Globular	-11.8194
▁Maximal	-11.8208
memory	-11.821
▁Quadratic	-11.8212
▁suspended	-11.8215
▁floating	-11.8215
crafted	-11.8216
widehat	-11.8221
▁malware	-11.8223
crystallographic	-11.8223
Extending	-11.8223
▁decouple	-11.8223
radius	-11.8225
▁Implementation	-11.8226
▁YBa	-11.8229
purpose	-11.8232
▁Retrieval	-11.8244
▁bremsstrahlung	-11.8244
symmetries	-11.8244
▁oscillate	-11.8247
phosph	-11.8251
▁calorimeter	-11.8254
▁irre	-11.8256
▁illuminate	-11.8258
▁Debye	-11.8262
▁smartphone	-11.8269
▁interpolating	-11.8272
▁MNIST	-11.8276
▁(2009)	-11.8279
▁meromorphic	-11.8283
▁(2012)	-11.829
▁isometries	-11.829
▁Employ	-11.8297
terminal	-11.83
▁Release	-11.8301
▁dressed	-11.8301
▁discontinuities	-11.8312
▁forthcoming	-11.8312
▁overestimate	-11.8312
▁burden	-11.8315
▁homogenization	-11.8315
▁Tsallis	-11.8319
▁Equivalence	-11.8322
▁Amplitude	-11.8329
▁actuator	-11.833
4.4	-11.8336
kinetic	-11.8338
SQUID	-11.8344
▁Generating	-11.8351
▁runaway	-11.8351
▁predicate	-11.8358
▁Life	-11.8366
▁dichotomy	-11.8369
▁(2013)	-11.8373
▁Precise	-11.8376
▁Preliminary	-11.838
▁scoring	-11.838
▁equipment	-11.8383
▁multiplexing	-11.8384
▁permittivity	-11.8387
▁limb	-11.8391
▁CDW	-11.8402
▁commute	-11.8403
▁merely	-11.8405
▁resilience	-11.8409
▁gaugino	-11.8412
▁Cellular	-11.8423
▁meso	-11.8429
▁tunnelling	-11.8441
▁utterance	-11.8441
▁rearrangement	-11.8449
▁June	-11.8456
▁plug	-11.8456
▁Threshold	-11.8463
▁capital	-11.8467
▁foam	-11.847
▁Cantor	-11.8474
▁concise	-11.8474
▁innermost	-11.8476
▁dopant	-11.8478
▁vessel	-11.8485
▁eavesdropper	-11.8488
▁Appl	-11.8491
▁ResNet	-11.8493
▁Mixture	-11.8499
▁revenue	-11.8499
▁China	-11.8503
▁entry	-11.8507
▁consume	-11.8529
▁leptogenesis	-11.8529
▁copula	-11.8529
▁Enhancement	-11.8532
▁formalize	-11.8537
4.6	-11.8543
▁Hooft	-11.8543
Ferromagnet	-11.8545
▁pivot	-11.8547
▁Allocation	-11.8548
▁Vortex	-11.8551
▁installed	-11.8551
▁oblique	-11.8551
▁erasure	-11.8551
▁Composition	-11.8552
▁(2014)	-11.8558
steady	-11.8563
$_5$	-11.8565
reciprocity	-11.8565
Front	-11.8572
▁electrolyte	-11.8576
feasible	-11.8582
9.5	-11.8584
specified	-11.8587
▁Market	-11.8598
hermitian	-11.8602
▁prepare	-11.8622
▁hamiltonian	-11.8624
▁suffice	-11.8628
▁univariate	-11.863
▁silica	-11.8638
▁guess	-11.8639
▁supersonic	-11.8647
▁cues	-11.8647
▁saliency	-11.865
▁(2008)	-11.8654
▁thousand	-11.8662
▁freezing	-11.8665
mixed	-11.8667
▁Saturn	-11.8669
▁automorphic	-11.8681
examine	-11.8682
spatial	-11.8682
▁Kinematic	-11.8683
▁fabric	-11.8689
▁About	-11.8694
▁Millimeter	-11.8695
▁Pressure	-11.8698
▁(2015)	-11.8706
▁albeit	-11.8706
negativity	-11.8718
representation	-11.872
▁Integrated	-11.8721
▁Composite	-11.8724
▁Satellite	-11.8724
▁recipe	-11.8724
▁conference	-11.8728
▁memories	-11.8728
gauge	-11.8742
▁multiferroic	-11.8743
▁socio	-11.8744
▁occupy	-11.8747
▁Negative	-11.8747
▁Benchmark	-11.8754
▁refraction	-11.876
▁amplified	-11.8762
▁Hypothesis	-11.8765
Ramanujan	-11.8773
▁Present	-11.8773
Moody	-11.8773
▁Canonical	-11.8777
$^{-3}$	-11.8786
▁Sunyaev	-11.8788
▁Silicon	-11.8788
▁contemporary	-11.8795
▁Analyzing	-11.8803
▁Identifying	-11.8814
▁idempotent	-11.8814
▁mJy	-11.8814
▁parsec	-11.882
▁snapshot	-11.8822
▁stabilizing	-11.8822
▁Secure	-11.8822
▁Walk	-11.8822
▁deceleration	-11.8829
▁occupancy	-11.8833
▁symmetr	-11.8833
▁whilst	-11.8848
▁Thermo	-11.8852
▁fluence	-11.8852
▁simplifies	-11.8871
▁ancilla	-11.8871
▁Soliton	-11.8875
▁Intrinsic	-11.8882
▁pocket	-11.889
▁July	-11.8909
attention	-11.8909
▁Diophantine	-11.8913
▁(2016)	-11.892
▁Counting	-11.892
exciton	-11.8929
▁exercise	-11.8932
▁tensile	-11.8953
▁Schubert	-11.8954
▁Bergman	-11.8955
▁Traffic	-11.897
▁phylogenetic	-11.8974
▁stretched	-11.8977
▁surveillance	-11.8981
identification	-11.8986
Peierls	-11.8989
Schwinger	-11.899
▁reducible	-11.8993
▁rotator	-11.8993
▁attachment	-11.8997
global	-11.9002
▁immune	-11.9004
▁demographic	-11.9004
▁impulsive	-11.9008
holomorphic	-11.9009
▁surely	-11.9016
▁Symmetries	-11.9031
▁Constraint	-11.9031
▁calibrate	-11.9037
▁Burgers	-11.9039
▁Transverse	-11.904
Weyl	-11.905
▁Almost	-11.9052
▁synaptic	-11.9058
▁manganite	-11.9066
▁Mrk	-11.9067
orientation	-11.9068
▁advocate	-11.9077
SVD	-11.9079
▁Atmospheric	-11.9081
▁Rational	-11.9083
▁motivic	-11.9085
▁complementarity	-11.9086
▁Curvature	-11.9093
▁genomic	-11.9097
▁Modular	-11.9098
▁Predictive	-11.9101
▁fiducial	-11.9101
▁solvability	-11.9108
▁inclined	-11.9112
▁automation	-11.9112
▁compelling	-11.9116
▁autoregressive	-11.9128
assembly	-11.9142
▁isotropy	-11.9143
▁immersion	-11.9147
▁Pulse	-11.9148
▁accuracies	-11.9159
▁Timing	-11.9163
▁irrational	-11.9174
▁observability	-11.9174
▁Operation	-11.9174
excited	-11.9177
▁pursue	-11.9178
▁holography	-11.9178
▁Adaptation	-11.9186
▁ordinal	-11.9186
▁adsorbed	-11.919
▁converging	-11.9194
▁accident	-11.9198
▁elasto	-11.9199
▁illustrating	-11.9202
▁Policy	-11.9202
▁Abundance	-11.9213
Thouless	-11.9221
▁PKS	-11.9222
▁Teichm	-11.923
▁argon	-11.9233
▁(2006)	-11.9237
▁mortality	-11.9241
Newman	-11.9256
▁triangulated	-11.9257
▁Major	-11.9276
6.4	-11.9278
existing	-11.9289
derived	-11.9303
▁Health	-11.9304
▁marker	-11.9311
Volterra	-11.932
▁physiological	-11.9324
4.7	-11.9324
▁shortcomings	-11.9328
symplectic	-11.9336
▁unidirectional	-11.9341
Uhlenbeck	-11.9344
▁misalignment	-11.9344
▁quarter	-11.9344
▁Contact	-11.9352
▁Fixed	-11.9356
▁deuterium	-11.9359
▁Turbulence	-11.9367
▁permeability	-11.9375
▁tame	-11.9383
4.8	-11.9385
▁Vertex	-11.9391
▁speckle	-11.9395
diffusive	-11.94
▁Additional	-11.9404
▁(2007)	-11.9407
▁orthorhombic	-11.9407
▁professional	-11.9407
▁Bohr	-11.9407
economic	-11.9416
▁ligand	-11.9419
▁April	-11.9423
messenger	-11.9439
▁Principal	-11.9455
▁lasing	-11.9456
▁Conversely	-11.9459
▁Legendre	-11.9463
▁Significant	-11.9467
▁renewable	-11.9467
▁impressive	-11.9475
▁observatories	-11.9483
statistics	-11.9489
▁incorporation	-11.9491
▁January	-11.9499
vortex	-11.9513
▁(2005)	-11.9528
▁manipulating	-11.9528
▁Scalable	-11.954
▁Alpha	-11.9549
Fisher	-11.9554
▁(2017)	-11.9556
extensive	-11.9566
▁finger	-11.9572
▁participation	-11.9572
LIRGs	-11.9572
bubble	-11.9575
intuitive	-11.9575
millimetre	-11.9589
▁Iterative	-11.9589
▁serial	-11.9589
SQL	-11.9589
▁rotor	-11.9593
▁Generic	-11.9597
▁conjugation	-11.9601
equivariant	-11.9603
▁intricate	-11.9609
▁deciding	-11.9613
hereafter	-11.9613
▁Chebyshev	-11.9617
▁annual	-11.9621
cosmo	-11.9636
▁superluminal	-11.9642
▁Degree	-11.9654
▁Property	-11.9654
▁leaf	-11.9654
▁dissipate	-11.9654
8.0	-11.9654
contained	-11.9661
▁confound	-11.9662
Type	-11.9663
▁Hochschild	-11.9666
▁sinusoidal	-11.9666
▁syntax	-11.9666
▁ultrasound	-11.967
▁September	-11.9678
▁Contribution	-11.9678
▁monad	-11.9679
▁deletion	-11.9683
▁Brauer	-11.9695
▁placing	-11.9695
▁credit	-11.9695
▁Shift	-11.9699
Moriya	-11.9703
▁hypothesize	-11.9719
▁pulsating	-11.9719
duplex	-11.972
3.9	-11.9721
▁Spectrometer	-11.9724
▁explosive	-11.9732
▁cloak	-11.9732
bundle	-11.9733
▁implant	-11.9736
▁XXZ	-11.9736
▁Oscillator	-11.9744
▁Scheduling	-11.9744
▁Abstract	-11.9753
▁became	-11.9765
▁Ansatz	-11.979
▁lexical	-11.9794
▁Sturm	-11.9796
▁Relaxation	-11.9798
▁rectangle	-11.9802
stationarity	-11.9804
▁Constraining	-11.9806
▁attitude	-11.9806
disciplinary	-11.9831
▁stimuli	-11.9836
▁catastrophic	-11.9844
www	-11.9844
▁vulnerabilities	-11.9856
Wheeler	-11.9865
▁Efficiency	-11.9877
negligible	-11.9878
▁Technology	-11.9881
▁photovoltaic	-11.9881
▁Intermediate	-11.9882
▁Randall	-11.9886
▁naked	-11.9898
▁compilation	-11.9902
6.0	-11.991
▁albedo	-11.9911
▁oxidation	-11.9911
▁caustic	-11.9919
▁eliminating	-11.9919
▁equilibration	-11.9923
deficient	-11.9932
▁fireball	-11.9932
▁RXTE	-11.9944
▁spiking	-11.9949
▁Wikipedia	-11.9966
10^{10}	-11.997
Sundrum	-11.9978
▁Alignment	-11.9995
▁kagome	-11.9999
resonator	-12.0005
perfect	-12.001
▁(2004)	-12.0012
▁hospital	-12.0021
▁August	-12.0025
▁Hamming	-12.0029
Laplacian	-12.0031
▁ferro	-12.0033
Thompson	-12.0038
▁Conventional	-12.0038
▁Hyperbolic	-12.0038
▁Basic	-12.0048
decoder	-12.0048
▁cheap	-12.0055
▁Defect	-12.0063
▁prevalence	-12.0067
▁publish	-12.0071
Energy	-12.0074
▁December	-12.0076
radiant	-12.0076
▁Gelfand	-12.008
▁definable	-12.008
▁Lemma	-12.008
▁Intelligent	-12.0097
▁Focusing	-12.0123
▁federated	-12.0123
▁depict	-12.0127
▁ambiguous	-12.0132
▁fringe	-12.0132
▁Voronoi	-12.014
selective	-12.0143
▁Associated	-12.0144
principle	-12.0145
▁participate	-12.0153
▁Fuzzy	-12.0166
▁submitted	-12.0175
▁Module	-12.018
▁economy	-12.0188
▁Acceleration	-12.0192
Lusztig	-12.0196
Jona	-12.02
^{(1)}	-12.02
▁Grassmann	-12.0207
▁announce	-12.0213
▁OGLE	-12.0218
▁chromosphere	-12.0226
▁prominence	-12.0231
(100)	-12.0239
▁baryogenesis	-12.0244
170817	-12.0248
▁WKB	-12.0253
▁breather	-12.0266
▁lipid	-12.0266
▁unfolding	-12.0266
▁renormalisation	-12.027
natural	-12.0275
Liouville	-12.0278
▁Interpretation	-12.0287
▁Sharp	-12.0292
entangled	-12.03
▁Primordial	-12.0305
▁Practical	-12.0309
▁emissivity	-12.0314
▁compiler	-12.0314
▁eleven	-12.0314
▁pain	-12.0321
▁Variability	-12.0322
▁arranged	-12.0322
▁Depth	-12.0322
▁unequal	-12.0336
estimation	-12.0336
▁integrity	-12.0349
▁amplify	-12.036
burg	-12.0363
▁Capacity	-12.0371
▁Vision	-12.0375
▁Glauber	-12.0379
▁Rotating	-12.0388
▁Lorenz	-12.0401
▁Bulk	-12.0401
▁Cygnus	-12.0406
shelf	-12.0407
▁American	-12.041
expansion	-12.0411
▁Utiliz	-12.0412
resident	-12.0416
▁optimise	-12.0418
▁Mechanical	-12.0428
0(980)	-12.0433
▁flame	-12.0437
avoiding	-12.0442
▁cyto	-12.0445
▁ambiguities	-12.0446
solving	-12.0446
packed	-12.0449
▁awareness	-12.0464
▁Deligne	-12.0472
▁clues	-12.0472
Hamiltonian	-12.0474
▁crystallization	-12.0481
▁astrometry	-12.0481
▁Planar	-12.0481
additive	-12.0483
autonomous	-12.0483
infinity	-12.0487
▁Lensing	-12.049
continuum	-12.0492
▁crisis	-12.0494
▁Sensitivity	-12.0503
▁speaking	-12.0508
▁vulnerability	-12.0512
LMXB	-12.0517
▁encouraging	-12.0535
▁preconditioner	-12.0544
▁Separation	-12.0566
▁Combinatorial	-12.057
▁title	-12.058
▁Assessment	-12.0593
▁Continuum	-12.0593
▁(2001)	-12.0606
▁concordance	-12.0611
▁reconsider	-12.0615
▁Radon	-12.0615
Boltzmann	-12.0618
restricted	-12.0618
Lasinio	-12.062
▁appendix	-12.0642
▁rainbow	-12.0642
▁reinforce	-12.0649
▁$^{12}$	-12.0651
▁Frame	-12.0659
guided	-12.0668
▁Anisotropy	-12.0679
▁corrupted	-12.0679
▁enveloping	-12.0701
cubic	-12.071
▁solute	-12.071
▁(2018)	-12.0719
▁Triple	-12.0721
▁mantle	-12.0729
▁commutation	-12.0729
▁fresh	-12.0738
average	-12.074
▁Circuit	-12.0742
▁Cognitive	-12.0751
▁Astronomy	-12.0756
▁Faddeev	-12.0756
▁institutions	-12.0761
projective	-12.0764
▁Ideal	-12.0766
horn	-12.0767
▁presumably	-12.0774
▁disadvantage	-12.0779
▁Crowd	-12.0779
first	-12.0783
▁pedagogical	-12.0783
▁clarified	-12.0802
additivity	-12.0802
agging	-12.081
▁Angle	-12.0811
▁seamless	-12.0816
▁harness	-12.082
▁tomographic	-12.0821
▁hydrophobic	-12.0829
▁enumerate	-12.0843
▁aqueous	-12.0843
▁gesture	-12.0848
▁eigenmodes	-12.0857
▁collimated	-12.0866
▁Exoplanet	-12.0871
▁pinned	-12.0885
▁(2003)	-12.0889
▁Ornstein	-12.0894
Zumino	-12.0894
▁aberration	-12.0894
▁Haldane	-12.0899
▁pyramid	-12.0903
▁hitherto	-12.0913
▁chirp	-12.0913
▁displaced	-12.0922
▁affirmative	-12.0926
▁chargino	-12.0931
nuclei	-12.0934
▁Interferometer	-12.094
▁Compression	-12.095
▁penalized	-12.0954
oscillator	-12.0969
bridge	-12.0971
▁ferrimagnet	-12.0973
▁October	-12.0978
▁Subaru	-12.0978
^{-1/2}	-12.0986
▁MOND	-12.1001
Taylor	-12.1002
Hopf	-12.1003
▁preceding	-12.1015
▁LiDAR	-12.1015
▁Position	-12.102
▁Suzaku	-12.1025
▁dilution	-12.1025
Track	-12.1027
▁tableaux	-12.1029
Weinberg	-12.1038
▁finance	-12.1039
mapsto	-12.105
▁Calibration	-12.1053
▁Koszul	-12.1057
▁architectural	-12.1072
▁Workshop	-12.1072
▁Fabry	-12.1076
▁Johnson	-12.1076
▁Lindblad	-12.1081
▁Configuration	-12.1095
▁laminar	-12.1105
▁(2002)	-12.1105
▁floor	-12.1105
▁numeric	-12.1108
centrosymmetric	-12.1109
▁Hankel	-12.1124
▁Fredholm	-12.1128
▁adhesion	-12.1152
▁receptor	-12.1171
▁prevail	-12.1176
▁Integration	-12.1176
validation	-12.1181
▁Antenna	-12.1195
branch	-12.1198
▁Skyrmion	-12.1209
▁Exploration	-12.1214
▁Federated	-12.1214
caloric	-12.1226
separable	-12.1227
▁calcium	-12.1228
▁isoperimetric	-12.1228
▁transducer	-12.1238
▁drone	-12.1239
▁Integer	-12.1243
▁invalid	-12.1246
distributed	-12.1246
▁Routing	-12.1248
▁national	-12.1263
▁tabu	-12.1264
▁Siegel	-12.1267
▁Seebeck	-12.1276
▁sequencing	-12.1276
▁distill	-12.1283
▁Institute	-12.1286
▁drastic	-12.1293
extension	-12.13
Mumford	-12.1301
▁diagnose	-12.132
▁scarce	-12.1325
▁Binaries	-12.1325
▁hypo	-12.1327
▁Calogero	-12.133
▁affinity	-12.133
Ramond	-12.1334
▁Hurwitz	-12.1339
▁convey	-12.1339
▁decidable	-12.1344
▁cataclysmic	-12.1349
scheme	-12.1354
▁Individual	-12.1354
▁Increasing	-12.1359
▁nickel	-12.1359
▁children	-12.1363
propagating	-12.1368
▁Candidate	-12.1368
▁Mirror	-12.1378
▁Gemini	-12.1378
▁welfare	-12.1388
▁Public	-12.1398
equivalence	-12.1402
mechanics	-12.1407
susceptibilities	-12.1407
▁Dzyaloshinskii	-12.1407
▁interstitial	-12.1412
▁flattening	-12.1412
▁Medical	-12.1412
▁Alexander	-12.1417
▁Accelerator	-12.1427
▁cyclotomic	-12.1432
▁occasion	-12.1432
▁Introduction	-12.1432
▁ecological	-12.1432
▁Period	-12.1435
▁receiving	-12.1451
▁pristine	-12.1471
▁rewriting	-12.1476
peptide	-12.1476
▁Deterministic	-12.1481
▁Consistency	-12.1495
Anosov	-12.1501
▁Residual	-12.1505
▁Cyber	-12.1505
Infrared	-12.1511
▁polarimetric	-12.1515
interference	-12.1516
▁Kaehler	-12.152
▁Scenario	-12.1535
▁lagrangian	-12.1535
▁ULX	-12.1535
Wigner	-12.1536
▁Synthetic	-12.154
▁invoking	-12.154
▁Schottky	-12.1545
▁dividing	-12.1545
▁Helium	-12.1545
separated	-12.1546
▁Affine	-12.155
polariton	-12.1551
▁Recommendation	-12.156
▁Metropolis	-12.157
▁cultural	-12.157
▁gathered	-12.157
10^{11}	-12.1585
▁Milnor	-12.1589
▁integrand	-12.1589
Hawking	-12.1601
gravitational	-12.1601
▁elsewhere	-12.1604
▁inviscid	-12.1604
▁Wannier	-12.1604
vacuum	-12.1606
obius	-12.1615
extremal	-12.1626
